{
  "version": "1.0",
  "truncation": null,
  "padding": null,
  "added_tokens": [
    {
      "id": 0,
      "content": "<unk>",
      "single_word": false,
      "lstrip": false,
      "rstrip": false,
      "normalized": false,
      "special": true
    },
    {
      "id": 1,
      "content": "<pad>",
      "single_word": false,
      "lstrip": false,
      "rstrip": false,
      "normalized": false,
      "special": true
    },
    {
      "id": 2,
      "content": "<bos>",
      "single_word": false,
      "lstrip": false,
      "rstrip": false,
      "normalized": false,
      "special": true
    },
    {
      "id": 3,
      "content": "<eos>",
      "single_word": false,
      "lstrip": false,
      "rstrip": false,
      "normalized": false,
      "special": true
    },
    {
      "id": 4,
      "content": "<sep>",
      "single_word": false,
      "lstrip": false,
      "rstrip": false,
      "normalized": false,
      "special": true
    }
  ],
  "normalizer": null,
  "pre_tokenizer": {
    "type": "ByteLevel",
    "add_prefix_space": false,
    "trim_offsets": true,
    "use_regex": true
  },
  "post_processor": null,
  "decoder": {
    "type": "ByteLevel",
    "add_prefix_space": true,
    "trim_offsets": true,
    "use_regex": true
  },
  "model": {
    "type": "BPE",
    "dropout": null,
    "unk_token": "<unk>",
    "continuing_subword_prefix": null,
    "end_of_word_suffix": null,
    "fuse_unk": false,
    "byte_fallback": false,
    "ignore_merges": false,
    "vocab": {
      "<unk>": 0,
      "<pad>": 1,
      "<bos>": 2,
      "<eos>": 3,
      "<sep>": 4,
      "!": 5,
      "\"": 6,
      "#": 7,
      "$": 8,
      "%": 9,
      "&": 10,
      "'": 11,
      "(": 12,
      ")": 13,
      "*": 14,
      "+": 15,
      ",": 16,
      "-": 17,
      ".": 18,
      "/": 19,
      "0": 20,
      "1": 21,
      "2": 22,
      "3": 23,
      "4": 24,
      "5": 25,
      "6": 26,
      "7": 27,
      "8": 28,
      "9": 29,
      ":": 30,
      ";": 31,
      "<": 32,
      "=": 33,
      ">": 34,
      "?": 35,
      "@": 36,
      "A": 37,
      "B": 38,
      "C": 39,
      "D": 40,
      "E": 41,
      "F": 42,
      "G": 43,
      "H": 44,
      "I": 45,
      "J": 46,
      "K": 47,
      "L": 48,
      "M": 49,
      "N": 50,
      "O": 51,
      "P": 52,
      "Q": 53,
      "R": 54,
      "S": 55,
      "T": 56,
      "U": 57,
      "V": 58,
      "W": 59,
      "X": 60,
      "Y": 61,
      "Z": 62,
      "[": 63,
      "\\": 64,
      "]": 65,
      "^": 66,
      "_": 67,
      "`": 68,
      "a": 69,
      "b": 70,
      "c": 71,
      "d": 72,
      "e": 73,
      "f": 74,
      "g": 75,
      "h": 76,
      "i": 77,
      "j": 78,
      "k": 79,
      "l": 80,
      "m": 81,
      "n": 82,
      "o": 83,
      "p": 84,
      "q": 85,
      "r": 86,
      "s": 87,
      "t": 88,
      "u": 89,
      "v": 90,
      "w": 91,
      "x": 92,
      "y": 93,
      "z": 94,
      "|": 95,
      "}": 96,
      "~": 97,
      "¡": 98,
      "¢": 99,
      "£": 100,
      "¤": 101,
      "¥": 102,
      "¦": 103,
      "§": 104,
      "¨": 105,
      "©": 106,
      "ª": 107,
      "«": 108,
      "¬": 109,
      "®": 110,
      "¯": 111,
      "°": 112,
      "±": 113,
      "²": 114,
      "³": 115,
      "´": 116,
      "µ": 117,
      "¶": 118,
      "·": 119,
      "¸": 120,
      "¹": 121,
      "º": 122,
      "»": 123,
      "¼": 124,
      "½": 125,
      "¾": 126,
      "¿": 127,
      "Â": 128,
      "Ã": 129,
      "Ä": 130,
      "Å": 131,
      "Æ": 132,
      "Ç": 133,
      "È": 134,
      "É": 135,
      "Ê": 136,
      "Ë": 137,
      "Ì": 138,
      "Í": 139,
      "Î": 140,
      "Ï": 141,
      "Ð": 142,
      "Ñ": 143,
      "Ò": 144,
      "Ó": 145,
      "Ô": 146,
      "Õ": 147,
      "Ö": 148,
      "×": 149,
      "Ø": 150,
      "Ù": 151,
      "Ú": 152,
      "Û": 153,
      "Ü": 154,
      "Ý": 155,
      "Þ": 156,
      "ß": 157,
      "à": 158,
      "á": 159,
      "â": 160,
      "ã": 161,
      "ä": 162,
      "å": 163,
      "æ": 164,
      "ç": 165,
      "è": 166,
      "é": 167,
      "ê": 168,
      "ë": 169,
      "ì": 170,
      "í": 171,
      "ï": 172,
      "ð": 173,
      "ĉ": 174,
      "Ċ": 175,
      "Ġ": 176,
      "Ģ": 177,
      "ģ": 178,
      "Ĥ": 179,
      "ĥ": 180,
      "Ħ": 181,
      "ħ": 182,
      "Ĩ": 183,
      "ĩ": 184,
      "Ī": 185,
      "ī": 186,
      "Ĭ": 187,
      "ĭ": 188,
      "Į": 189,
      "į": 190,
      "İ": 191,
      "ı": 192,
      "Ĳ": 193,
      "ĳ": 194,
      "Ĵ": 195,
      "ĵ": 196,
      "Ķ": 197,
      "ķ": 198,
      "ĸ": 199,
      "Ĺ": 200,
      "ĺ": 201,
      "Ļ": 202,
      "ļ": 203,
      "Ľ": 204,
      "ľ": 205,
      "Ŀ": 206,
      "ŀ": 207,
      "Ł": 208,
      "ł": 209,
      "Ń": 210,
      "Ġt": 211,
      "Ġa": 212,
      "he": 213,
      "in": 214,
      "re": 215,
      "Ġthe": 216,
      "on": 217,
      "er": 218,
      "Ġo": 219,
      "at": 220,
      "Ġs": 221,
      "en": 222,
      "Ġc": 223,
      "Ġw": 224,
      "es": 225,
      "is": 226,
      "nd": 227,
      "it": 228,
      "or": 229,
      "Ġof": 230,
      "al": 231,
      "ed": 232,
      "Ġp": 233,
      "an": 234,
      "Ġb": 235,
      "Ġf": 236,
      "Ġin": 237,
      "ing": 238,
      "ar": 239,
      "Ġm": 240,
      "Ġand": 241,
      "ic": 242,
      "ou": 243,
      "ion": 244,
      "Ġto": 245,
      "Ġd": 246,
      "ro": 247,
      "le": 248,
      "as": 249,
      "Ġh": 250,
      "Ġth": 251,
      "ent": 252,
      "Ġe": 253,
      "ct": 254,
      "Ġre": 255,
      "il": 256,
      "om": 257,
      "Ġn": 258,
      "st": 259,
      "ve": 260,
      "Ġl": 261,
      "ly": 262,
      "Ġbe": 263,
      "ĠT": 264,
      "âĢ": 265,
      "Ġis": 266,
      "ation": 267,
      "ol": 268,
      "se": 269,
      "im": 270,
      "Ġg": 271,
      "ce": 272,
      "ot": 273,
      "id": 274,
      "ĠA": 275,
      "ut": 276,
      "ur": 277,
      "et": 278,
      "ra": 279,
      "ĠS": 280,
      "ch": 281,
      "ig": 282,
      "Ġfor": 283,
      "ow": 284,
      "Ġthat": 285,
      "ĠI": 286,
      "ĠC": 287,
      "Ġon": 288,
      "Ġu": 289,
      "ver": 290,
      "ir": 291,
      "Ġst": 292,
      "ul": 293,
      "am": 294,
      "Ġas": 295,
      "Ġ(": 296,
      "el": 297,
      "ith": 298,
      "ad": 299,
      "her": 300,
      "Ġcon": 301,
      "ay": 302,
      "Ġ1": 303,
      "Ġwith": 304,
      "Ġpro": 305,
      "ĠM": 306,
      "Ġwh": 307,
      "Ġan": 308,
      "if": 309,
      "ĠThe": 310,
      "Ġal": 311,
      "ter": 312,
      "Ġy": 313,
      "Ġit": 314,
      "ĠP": 315,
      "Ġare": 316,
      "od": 317,
      "Ġor": 318,
      "ment": 319,
      "ĠB": 320,
      "ist": 321,
      "ere": 322,
      "ge": 323,
      "th": 324,
      "Ġde": 325,
      "ate": 326,
      "us": 327,
      "op": 328,
      "ers": 329,
      "ri": 330,
      "ĠH": 331,
      "ab": 332,
      "Ġex": 333,
      "res": 334,
      "ess": 335,
      "Ġwas": 336,
      "Ġhe": 337,
      "Ġsu": 338,
      "ity": 339,
      "est": 340,
      "Ġcom": 341,
      "ect": 342,
      "ill": 343,
      "os": 344,
      "Ġby": 345,
      "ld": 346,
      "ac": 347,
      "rom": 348,
      "and": 349,
      "em": 350,
      "um": 351,
      "Ġyou": 352,
      "Ġv": 353,
      "ies": 354,
      "ive": 355,
      "ore": 356,
      "ain": 357,
      "qu": 358,
      "ĠR": 359,
      "ĠW": 360,
      "ant": 361,
      "âĢĻ": 362,
      "pp": 363,
      "Ġ2": 364,
      "ĠD": 365,
      "Ġat": 366,
      "ĠE": 367,
      "nt": 368,
      "iv": 369,
      "oc": 370,
      "ĠF": 371,
      "Ġfrom": 372,
      "ke": 373,
      "ĠG": 374,
      "igh": 375,
      "Ġha": 376,
      "Ġnot": 377,
      "Ġse": 378,
      "ort": 379,
      "ud": 380,
      "Ġr": 381,
      "ĠN": 382,
      "Ġch": 383,
      "ĠL": 384,
      "ure": 385,
      "Ġne": 386,
      "ĠâĢ": 387,
      "ical": 388,
      "ial": 389,
      "un": 390,
      "00": 391,
      "art": 392,
      "Ġcan": 393,
      "og": 394,
      "ich": 395,
      "Ġle": 396,
      "Ġhave": 397,
      "Ġsh": 398,
      "pt": 399,
      "Ġthis": 400,
      "ĠJ": 401,
      "pe": 402,
      "ould": 403,
      "Ġen": 404,
      "ther": 405,
      "ated": 406,
      "gh": 407,
      "all": 408,
      "ight": 409,
      "ions": 410,
      "rou": 411,
      "ost": 412,
      "our": 413,
      "Ġab": 414,
      "Ġwe": 415,
      "ust": 416,
      "ĠO": 417,
      "ome": 418,
      "Ġwor": 419,
      "ans": 420,
      "ard": 421,
      "Ġwhich": 422,
      "per": 423,
      "ag": 424,
      "ine": 425,
      "Ġim": 426,
      "pl": 427,
      "Ġint": 428,
      "ell": 429,
      "ff": 430,
      "ous": 431,
      "act": 432,
      "Ġtheir": 433,
      "iz": 434,
      "Ġus": 435,
      "ast": 436,
      "The": 437,
      "Ġpl": 438,
      "out": 439,
      "ĠIn": 440,
      "Ġwere": 441,
      "ak": 442,
      "du": 443,
      "ib": 444,
      "Ġk": 445,
      "age": 446,
      "Ġwhe": 447,
      "Ġall": 448,
      "end": 449,
      "Ġ19": 450,
      "ult": 451,
      "Ġthey": 452,
      "ew": 453,
      "Ġcont": 454,
      "ia": 455,
      "ong": 456,
      "ĠU": 457,
      "are": 458,
      "cc": 459,
      "ru": 460,
      "ations": 461,
      "ide": 462,
      "Ġad": 463,
      "ear": 464,
      "ary": 465,
      "Ġres": 466,
      ").": 467,
      "ip": 468,
      "âĢĿ": 469,
      "Ġinc": 470,
      "Ġcomp": 471,
      "Ġdis": 472,
      "ence": 473,
      "ap": 474,
      "ire": 475,
      "ood": 476,
      "Ġhis": 477,
      "Ġhas": 478,
      "ĠTh": 479,
      "Ġbut": 480,
      "vel": 481,
      "ual": 482,
      "Ġman": 483,
      "able": 484,
      "so": 485,
      "Ġdo": 486,
      "orm": 487,
      "Ġother": 488,
      "Ġwill": 489,
      "ance": 490,
      "ĠâĢľ": 491,
      "Ġmore": 492,
      "Ġcl": 493,
      "ry": 494,
      "Ġper": 495,
      "Ġme": 496,
      "ater": 497,
      "Ġone": 498,
      "'s": 499,
      "ress": 500,
      "ose": 501,
      "av": 502,
      "Ġ\"": 503,
      "ign": 504,
      "ks": 505,
      "ind": 506,
      "ction": 507,
      "Ġun": 508,
      "Ġar": 509,
      "ass": 510,
      "au": 511,
      "ach": 512,
      "ber": 513,
      "ĠK": 514,
      "ition": 515,
      "ish": 516,
      "ep": 517,
      "Ġalso": 518,
      "Ġapp": 519,
      "Ġso": 520,
      "ame": 521,
      "Ġimp": 522,
      "Ġwho": 523,
      "ice": 524,
      "ord": 525,
      "reat": 526,
      "Ġev": 527,
      "Ġpre": 528,
      "Ġpart": 529,
      "Ġj": 530,
      "ase": 531,
      "ory": 532,
      "ĠSt": 533,
      "ime": 534,
      "ens": 535,
      "ents": 536,
      "one": 537,
      "ild": 538,
      "Ġsp": 539,
      "Ġout": 540,
      "Ġhad": 541,
      "ie": 542,
      "ian": 543,
      "Ġyour": 544,
      "ces": 545,
      "ount": 546,
      "very": 547,
      "ub": 548,
      "ace": 549,
      "ĠCh": 550,
      "ack": 551,
      "Ġcomm": 552,
      "ue": 553,
      "ake": 554,
      "ree": 555,
      "ang": 556,
      "Ġthem": 557,
      "Ġte": 558,
      "Ġbec": 559,
      "ok": 560,
      "Ġsy": 561,
      "ors": 562,
      "Ġpe": 563,
      "Ġinf": 564,
      "Ġbeen": 565,
      "rit": 566,
      "Ġthere": 567,
      "ound": 568,
      "olog": 569,
      "low": 570,
      "ĠIt": 571,
      "Ġag": 572,
      "Ġup": 573,
      "ates": 574,
      "01": 575,
      "Ġabout": 576,
      "iff": 577,
      "ĠV": 578,
      "now": 579,
      "Ġ3": 580,
      "Ġits": 581,
      "ile": 582,
      "Ġthan": 583,
      "Ġqu": 584,
      "con": 585,
      "ric": 586,
      "Ġmay": 587,
      "ph": 588,
      "nder": 589,
      "ci": 590,
      "ough": 591,
      "ike": 592,
      "Ġsome": 593,
      "Ġind": 594,
      "pec": 595,
      "ite": 596,
      "ings": 597,
      "mer": 598,
      "Ġwould": 599,
      "Ġinto": 600,
      "Ġgo": 601,
      "Ġstud": 602,
      "erv": 603,
      "ail": 604,
      "),": 605,
      "Ġwhen": 606,
      "Ġtra": 607,
      "Ġcons": 608,
      "ally": 609,
      "te": 610,
      "ific": 611,
      "Ġtime": 612,
      "tern": 613,
      "Ġthese": 614,
      "Ġrel": 615,
      "Ġover": 616,
      "Ġrec": 617,
      "we": 618,
      "ĠThis": 619,
      "ople": 620,
      "Ġdiff": 621,
      "Ġra": 622,
      "ays": 623,
      "Ġyear": 624,
      "ll": 625,
      "erm": 626,
      "ove": 627,
      "Ġbet": 628,
      "vers": 629,
      "ons": 630,
      "Ġdes": 631,
      "Ġno": 632,
      "int": 633,
      "rough": 634,
      "ause": 635,
      "ren": 636,
      "Ġtw": 637,
      "Ġro": 638,
      "Ġunder": 639,
      "irst": 640,
      "Ġwork": 641,
      "lic": 642,
      "Ġact": 643,
      "ys": 644,
      "Ġtr": 645,
      "ments": 646,
      "lud": 647,
      "Ġgen": 648,
      "Ġsuch": 649,
      "ĠY": 650,
      "Ġmost": 651,
      "wn": 652,
      "ities": 653,
      "Ġacc": 654,
      "red": 655,
      "lect": 656,
      "Ġpeople": 657,
      "ject": 658,
      "ative": 659,
      "hed": 660,
      "ious": 661,
      "Ġknow": 662,
      "Ġonly": 663,
      "les": 664,
      "Ġcol": 665,
      "ced": 666,
      "Ġany": 667,
      "cess": 668,
      "Ġ200": 669,
      "stem": 670,
      "ational": 671,
      "Ġuse": 672,
      "Ġhow": 673,
      "Ġam": 674,
      "Ġrep": 675,
      "ular": 676,
      "ov": 677,
      "rib": 678,
      "Ġif": 679,
      "aw": 680,
      "ffect": 681,
      "Ġpo": 682,
      "fter": 683,
      "ath": 684,
      "Ġbl": 685,
      "Ġlike": 686,
      "ied": 687,
      "ple": 688,
      "velop": 689,
      "Ġreg": 690,
      "Ġour": 691,
      "ning": 692,
      "Ġob": 693,
      "ob": 694,
      "ms": 695,
      "Ġexp": 696,
      "Ġoff": 697,
      "Ġfirst": 698,
      "Ġtwo": 699,
      "Ġph": 700,
      "ĠHe": 701,
      "ne": 702,
      "Ġass": 703,
      "Ġnew": 704,
      "Ġwhat": 705,
      "ook": 706,
      "Ġinclud": 707,
      "Ġatt": 708,
      "oss": 709,
      "Ġused": 710,
      "old": 711,
      "Ġprov": 712,
      "Ġac": 713,
      "Ġ4": 714,
      "ĠUn": 715,
      "ating": 716,
      "ark": 717,
      "Ġprodu": 718,
      "Ġspec": 719,
      "oth": 720,
      "ise": 721,
      "Ġsc": 722,
      "Ġmany": 723,
      "Ġsub": 724,
      "iet": 725,
      "Ġem": 726,
      "Ġthrough": 727,
      "ert": 728,
      "iss": 729,
      "ween": 730,
      "Ġneed": 731,
      "uring": 732,
      "sel": 733,
      "Ġ201": 734,
      "hen": 735,
      "Ġfe": 736,
      "Ġdiffere": 737,
      "ics": 738,
      "fore": 739,
      "ution": 740,
      "uc": 741,
      "Ġdec": 742,
      "ility": 743,
      "ible": 744,
      "ts": 745,
      "als": 746,
      "Ġsystem": 747,
      "ful": 748,
      "ered": 749,
      "Ġpr": 750,
      "Ġco": 751,
      "Ġbetween": 752,
      "alth": 753,
      "Ġdevelop": 754,
      "ased": 755,
      ".,": 756,
      "ade": 757,
      "eth": 758,
      "ower": 759,
      "Ġ5": 760,
      "Ġpres": 761,
      "Ġrem": 762,
      "ism": 763,
      "round": 764,
      "ife": 765,
      "Ġshould": 766,
      "ps": 767,
      "gan": 768,
      "Ġsupp": 769,
      "ten": 770,
      "ever": 771,
      "cy": 772,
      "ng": 773,
      "Ġtrans": 774,
      "ures": 775,
      "Ġher": 776,
      "Ġinv": 777,
      "ract": 778,
      "ond": 779,
      "Ġsur": 780,
      "Ġinter": 781,
      "ink": 782,
      "Ġ18": 783,
      "row": 784,
      "Ġchild": 785,
      "Ġwell": 786,
      "ited": 787,
      "In": 788,
      "Ġadd": 789,
      "Ġ-": 790,
      "hes": 791,
      "Ġwhere": 792,
      "ble": 793,
      "19": 794,
      "own": 795,
      "ĠAs": 796,
      "Ġcould": 797,
      "Ġpol": 798,
      "Ġsa": 799,
      "ident": 800,
      "Ġmod": 801,
      "ange": 802,
      "cept": 803,
      "uch": 804,
      "form": 805,
      "ĠRe": 806,
      "Ġform": 807,
      "ram": 808,
      "ĠâĢĵ": 809,
      "arch": 810,
      "Ġyears": 811,
      "Ġfl": 812,
      "Ġpers": 813,
      "ily": 814,
      "ural": 815,
      "land": 816,
      "Ġear": 817,
      "its": 818,
      "Ġafter": 819,
      "ved": 820,
      "Ġhigh": 821,
      "Ġinst": 822,
      "ants": 823,
      "xt": 824,
      "Ġhel": 825,
      "ict": 826,
      "Ġthen": 827,
      "meric": 828,
      "Ġnum": 829,
      "Ġcent": 830,
      "ins": 831,
      "oy": 832,
      "Ġbecause": 833,
      "Ġsm": 834,
      "other": 835,
      "Ġref": 836,
      "Ġresp": 837,
      "ick": 838,
      "ool": 839,
      "ines": 840,
      "ft": 841,
      "ature": 842,
      "Ġhim": 843,
      "ology": 844,
      "ness": 845,
      "Ġexam": 846,
      "urn": 847,
      "eral": 848,
      "Ġlar": 849,
      "Ġvery": 850,
      "Ġsim": 851,
      "ron": 852,
      "Ġfol": 853,
      "itt": 854,
      "||": 855,
      "..": 856,
      "iew": 857,
      "âĢĵ": 858,
      "vern": 859,
      "Ġeven": 860,
      "Ġeffect": 861,
      "Ġhum": 862,
      "Ġdet": 863,
      "Ġfound": 864,
      "Ġbu": 865,
      "the": 866,
      "Ġwater": 867,
      "Ġthose": 868,
      "ec": 869,
      "Ġsign": 870,
      "Ġdifferent": 871,
      "Ġlong": 872,
      "Ġsoc": 873,
      "Ġmy": 874,
      "ically": 875,
      "Ġimport": 876,
      "Ġdist": 877,
      "ata": 878,
      "Ġvar": 879,
      "Ġcount": 880,
      "ually": 881,
      "Ġext": 882,
      "ĠAmeric": 883,
      "Ġfact": 884,
      "omm": 885,
      "ists": 886,
      "Ġdef": 887,
      "led": 888,
      "ros": 889,
      "Ġincre": 890,
      "ized": 891,
      "Ġ6": 892,
      "Ġbeing": 893,
      "Ġjust": 894,
      "Ġed": 895,
      "ather": 896,
      "Ġent": 897,
      "ĠAl": 898,
      "Ġdisc": 899,
      "Ġty": 900,
      "Ġmake": 901,
      "ĠWh": 902,
      "Ġcar": 903,
      "Ġworld": 904,
      "ivers": 905,
      "Ġpat": 906,
      "ublic": 907,
      "Ġsee": 908,
      "Ġresult": 909,
      "Ġexper": 910,
      "gy": 911,
      "ward": 912,
      "vent": 913,
      "Ġpartic": 914,
      "Ġfollow": 915,
      "Ġcall": 916,
      "hip": 917,
      "ruct": 918,
      "Ġmed": 919,
      "Ġset": 920,
      "Ġend": 921,
      "ork": 922,
      "Ġway": 923,
      "chn": 924,
      "Ġrequ": 925,
      "Ġsame": 926,
      "ues": 927,
      "Ġagain": 928,
      "ĠAr": 929,
      "ives": 930,
      "Ġown": 931,
      "Ġdep": 932,
      "ĠPro": 933,
      "Ġloc": 934,
      "Ġmade": 935,
      "Ġshe": 936,
      "get": 937,
      "Ġhelp": 938,
      "aking": 939,
      "ah": 940,
      "ty": 941,
      "ef": 942,
      "Ġeach": 943,
      "arm": 944,
      "Ġget": 945,
      "chool": 946,
      "Ġconc": 947,
      "ĠAn": 948,
      "io": 949,
      "Ġright": 950,
      ".âĢĿ": 951,
      "Ġlife": 952,
      "ases": 953,
      "Ġduring": 954,
      "Ġprocess": 955,
      "Ġmon": 956,
      "Ġaut": 957,
      "Ġgra": 958,
      "Ġboth": 959,
      "ern": 960,
      "ages": 961,
      "Ġmuch": 962,
      "Ġinform": 963,
      "ĠWe": 964,
      "inal": 965,
      "ection": 966,
      "ds": 967,
      "Ġprog": 968,
      "Ġevery": 969,
      "ined": 970,
      "any": 971,
      "Ġfam": 972,
      "Ġhealth": 973,
      "Ġ199": 974,
      "Ġcommun": 975,
      "imes": 976,
      "ale": 977,
      "ck": 978,
      "ran": 979,
      "ĠFor": 980,
      "ĠInd": 981,
      "ince": 982,
      "ĠCon": 983,
      "ient": 984,
      "Ġart": 985,
      "Ġca": 986,
      "gg": 987,
      "Ġke": 988,
      "und": 989,
      "Ġgrou": 990,
      "Ġcor": 991,
      "ĠThey": 992,
      "Ġval": 993,
      "ivid": 994,
      "der": 995,
      "oh": 996,
      "ody": 997,
      "iel": 998,
      "Ġdoes": 999,
      "Ġappro": 1000,
      "Ġbefore": 1001,
      "Ġlead": 1002,
      "Ġpop": 1003,
      "ven": 1004,
      "ize": 1005,
      "ality": 1006,
      "Ġperson": 1007,
      "Th": 1008,
      "ix": 1009,
      "ĠNew": 1010,
      "Ġlevel": 1011,
      "Ġstate": 1012,
      "ices": 1013,
      "Ġ7": 1014,
      "Ġstr": 1015,
      "Ġdid": 1016,
      "Ġchar": 1017,
      "ĠSe": 1018,
      "Ġposs": 1019,
      "Ġmin": 1020,
      "Ġhist": 1021,
      "Ġcomple": 1022,
      "ting": 1023,
      "Ġet": 1024,
      "Ġcre": 1025,
      "Ġgood": 1026,
      "Ġins": 1027,
      "Ġrese": 1028,
      "10": 1029,
      "Ġimportant": 1030,
      "ished": 1031,
      "ulation": 1032,
      "Ġmain": 1033,
      "Ġ10": 1034,
      "ially": 1035,
      "Ġbel": 1036,
      "âĢĶ": 1037,
      "ars": 1038,
      "nce": 1039,
      "ral": 1040,
      "Ġocc": 1041,
      "rol": 1042,
      "Ġmem": 1043,
      "ĠHow": 1044,
      "Ġback": 1045,
      "iron": 1046,
      "Ġest": 1047,
      "self": 1048,
      "ax": 1049,
      "ock": 1050,
      "Ġserv": 1051,
      "omen": 1052,
      "ves": 1053,
      "Ġpower": 1054,
      "Ġmust": 1055,
      "Ġgovern": 1056,
      "ury": 1057,
      "ĠIs": 1058,
      "000": 1059,
      "ier": 1060,
      "Ġwrit": 1061,
      "ving": 1062,
      "Ġread": 1063,
      "Ġlear": 1064,
      "Ġdata": 1065,
      "Ġcur": 1066,
      "Ġhuman": 1067,
      "uss": 1068,
      "Ġconf": 1069,
      "Ġ8": 1070,
      "Ġsmall": 1071,
      "Ġchildren": 1072,
      "aj": 1073,
      "Ġav": 1074,
      "Ġshow": 1075,
      "ex": 1076,
      "Ġnumber": 1077,
      "Ġwhile": 1078,
      "Ġtechn": 1079,
      "read": 1080,
      "Ġconsid": 1081,
      "irect": 1082,
      "Ġexpl": 1083,
      "hem": 1084,
      "Ġproble": 1085,
      "ters": 1086,
      "ute": 1087,
      "Ġthree": 1088,
      "Ġ9": 1089,
      "ĠIf": 1090,
      "Ġnow": 1091,
      "Ġorgan": 1092,
      "air": 1093,
      "Ġdi": 1094,
      "up": 1095,
      "Ġinformation": 1096,
      "dition": 1097,
      "Ġ.": 1098,
      "Ġconst": 1099,
      "Ġgreat": 1100,
      "Ġpoint": 1101,
      "ner": 1102,
      "Ġsaid": 1103,
      "Ġret": 1104,
      "Ġ[": 1105,
      "Ġoften": 1106,
      "ave": 1107,
      "ands": 1108,
      "ared": 1109,
      "ĠAnd": 1110,
      "Ġprot": 1111,
      "Ġgl": 1112,
      "Ġusing": 1113,
      "Ġbo": 1114,
      "Ġfind": 1115,
      "Ġstudy": 1116,
      "tt": 1117,
      "man": 1118,
      "ĠBut": 1119,
      "Ġlarge": 1120,
      "Ġtest": 1121,
      "iety": 1122,
      "ouse": 1123,
      "ĠGod": 1124,
      "ĠâĢĺ": 1125,
      "Ġthough": 1126,
      "iversity": 1127,
      "imate": 1128,
      "Ġless": 1129,
      "Ġsupport": 1130,
      ".\"": 1131,
      "ization": 1132,
      "ĠThere": 1133,
      "acter": 1134,
      "ency": 1135,
      "ides": 1136,
      "Ġcell": 1137,
      "Ġday": 1138,
      "conom": 1139,
      "Ġexample": 1140,
      "Ġfun": 1141,
      "Ġcontin": 1142,
      "Ġschool": 1143,
      "itions": 1144,
      "de": 1145,
      "stand": 1146,
      "ross": 1147,
      "Ġsk": 1148,
      "ision": 1149,
      "Ġop": 1150,
      "Ġtreat": 1151,
      "ians": 1152,
      "ital": 1153,
      "iqu": 1154,
      "ted": 1155,
      "Ġser": 1156,
      "Ġequ": 1157,
      "ains": 1158,
      "Ġgrow": 1159,
      "Ġgener": 1160,
      "cond": 1161,
      "Ġtake": 1162,
      "outh": 1163,
      "Ġactiv": 1164,
      "Ġdown": 1165,
      "Ġsol": 1166,
      "osed": 1167,
      "cent": 1168,
      "cient": 1169,
      "rent": 1170,
      "Ġclass": 1171,
      "akes": 1172,
      "ash": 1173,
      "ĠDe": 1174,
      "ull": 1175,
      "ring": 1176,
      "Ġcle": 1177,
      "Ġpresent": 1178,
      "Ġdem": 1179,
      "ained": 1180,
      "ger": 1181,
      "way": 1182,
      "ividual": 1183,
      "viron": 1184,
      "Ġcour": 1185,
      "rist": 1186,
      "iod": 1187,
      "orn": 1188,
      "ired": 1189,
      "Ġmet": 1190,
      "oci": 1191,
      "Ġfood": 1192,
      "Ġ20": 1193,
      "Ġpublic": 1194,
      "Ġterm": 1195,
      "Ġ&": 1196,
      "Ġcommon": 1197,
      "Ġreport": 1198,
      "Ġdesign": 1199,
      "ense": 1200,
      "ination": 1201,
      "cl": 1202,
      "ium": 1203,
      "Ġlaw": 1204,
      "ug": 1205,
      "bers": 1206,
      "oun": 1207,
      "ional": 1208,
      "ration": 1209,
      "ton": 1210,
      "erest": 1211,
      "Ġwithin": 1212,
      "com": 1213,
      "lish": 1214,
      "Ġcap": 1215,
      "els": 1216,
      "iven": 1217,
      "Ġmat": 1218,
      "Ġpur": 1219,
      "Ġcalled": 1220,
      "uro": 1221,
      "Ġstill": 1222,
      "Ġdesc": 1223,
      "Ġplace": 1224,
      "Ġadv": 1225,
      "Ġwithout": 1226,
      "ason": 1227,
      "eg": 1228,
      "Ġredu": 1229,
      "Ġpract": 1230,
      "ior": 1231,
      "Ġagainst": 1232,
      "Ġide": 1233,
      "Ġbeh": 1234,
      "Ġelect": 1235,
      "Ġindividual": 1236,
      "Ġbody": 1237,
      "20": 1238,
      "ertain": 1239,
      "orth": 1240,
      "Ġplan": 1241,
      "pect": 1242,
      "ived": 1243,
      "Ġknown": 1244,
      "ified": 1245,
      "Ġmight": 1246,
      "Ġallow": 1247,
      "Ġgu": 1248,
      "Ġbelie": 1249,
      "att": 1250,
      "ological": 1251,
      "Ġsl": 1252,
      "atic": 1253,
      "Ġpos": 1254,
      "ries": 1255,
      "Ġstudents": 1256,
      "less": 1257,
      "Ġsom": 1258,
      "Ġimm": 1259,
      "ĠEng": 1260,
      "Ġaround": 1261,
      "Ġincluding": 1262,
      "Ġpass": 1263,
      "Ġris": 1264,
      "Ġwar": 1265,
      "Ġspe": 1266,
      "ption": 1267,
      "Ġquest": 1268,
      "ĠSp": 1269,
      "Ġpar": 1270,
      "eng": 1271,
      "ethod": 1272,
      "Ġgovernment": 1273,
      "Ġanother": 1274,
      "raph": 1275,
      "Ġcult": 1276,
      "ĠThese": 1277,
      "Ġcare": 1278,
      "iving": 1279,
      "Ġstart": 1280,
      "ential": 1281,
      "ris": 1282,
      "ffic": 1283,
      "itive": 1284,
      "Ġtem": 1285,
      "irc": 1286,
      "Ġdirect": 1287,
      "Ġlook": 1288,
      "Wh": 1289,
      "vironment": 1290,
      "Ġexperi": 1291,
      "Ġsocial": 1292,
      "ik": 1293,
      "az": 1294,
      "Ġident": 1295,
      "Ġfew": 1296,
      "ĠAmerican": 1297,
      "Ġdise": 1298,
      "Ġpri": 1299,
      "Ġmen": 1300,
      "Ġanal": 1301,
      "ĠSh": 1302,
      "Ġthink": 1303,
      "ield": 1304,
      "ajor": 1305,
      "rain": 1306,
      "day": 1307,
      "ability": 1308,
      "rop": 1309,
      "Ġchang": 1310,
      "Ġdevelopment": 1311,
      "me": 1312,
      "ank": 1313,
      "ĠPh": 1314,
      "Ġmil": 1315,
      "ering": 1316,
      "Ġinterest": 1317,
      "Ġprop": 1318,
      "Ġhy": 1319,
      "Ġeduc": 1320,
      "Ġrest": 1321,
      "aterial": 1322,
      "Ġgre": 1323,
      "lu": 1324,
      "hor": 1325,
      "Ġleg": 1326,
      "to": 1327,
      "Ġ15": 1328,
      "ĠZ": 1329,
      "Ġant": 1330,
      "Ġresearch": 1331,
      ",âĢĿ": 1332,
      "angu": 1333,
      "Ġhand": 1334,
      "ention": 1335,
      "Ġiss": 1336,
      "Ġbuild": 1337,
      "ret": 1338,
      "anc": 1339,
      "ĠAd": 1340,
      "18": 1341,
      "Ġopp": 1342,
      "Ġland": 1343,
      "Ġmark": 1344,
      "ccess": 1345,
      "Ġoper": 1346,
      "par": 1347,
      "Ġbro": 1348,
      "Ġcontrol": 1349,
      "ĠHowever": 1350,
      "Ġvis": 1351,
      "Ġorder": 1352,
      "Ġstand": 1353,
      "inc": 1354,
      "Ġtyp": 1355,
      "Ġeconom": 1356,
      "iness": 1357,
      "Ġunderstand": 1358,
      "Ġmeas": 1359,
      "Ġwomen": 1360,
      "Ġbas": 1361,
      "ording": 1362,
      "Ġ17": 1363,
      "amp": 1364,
      "ĠChrist": 1365,
      "lement": 1366,
      "Ġunt": 1367,
      "ission": 1368,
      "Ġsever": 1369,
      "Ġamong": 1370,
      "ently": 1371,
      "ergy": 1372,
      "Ġperiod": 1373,
      "Ġorig": 1374,
      "Ġphys": 1375,
      "rodu": 1376,
      "Ġparticular": 1377,
      "Ġeas": 1378,
      "200": 1379,
      "Ġwant": 1380,
      "Ġfore": 1381,
      "idence": 1382,
      "Ġmethod": 1383,
      "Ġarea": 1384,
      "of": 1385,
      "mb": 1386,
      "Ġpot": 1387,
      "ources": 1388,
      "Ġearly": 1389,
      "agn": 1390,
      "ected": 1391,
      "here": 1392,
      "ĠComm": 1393,
      "view": 1394,
      "though": 1395,
      "Ġes": 1396,
      "gin": 1397,
      "Ġold": 1398,
      "Ġcaus": 1399,
      "Ġproduct": 1400,
      "Ġmar": 1401,
      "ify": 1402,
      "ĠQ": 1403,
      "ĠCl": 1404,
      "Ġnon": 1405,
      "Ġmove": 1406,
      "Ġprof": 1407,
      "Ġreal": 1408,
      "Ġmajor": 1409,
      "oms": 1410,
      "Ġgroup": 1411,
      "ww": 1412,
      "Ġchange": 1413,
      "not": 1414,
      "ina": 1415,
      "Ġproper": 1416,
      "ĠYou": 1417,
      "11": 1418,
      "This": 1419,
      "ats": 1420,
      "lished": 1421,
      "ples": 1422,
      "Ġcase": 1423,
      "ĠUnited": 1424,
      "Ġsit": 1425,
      "Ġsecond": 1426,
      "Ġlight": 1427,
      "arent": 1428,
      "Ġplay": 1429,
      "Ġlow": 1430,
      "ining": 1431,
      "Ġmaterial": 1432,
      "sy": 1433,
      "ilar": 1434,
      "Ġsay": 1435,
      "ences": 1436,
      "iver": 1437,
      "Ġpolit": 1438,
      "olution": 1439,
      "ĠRes": 1440,
      "Ġbre": 1441,
      "ental": 1442,
      "Ġfre": 1443,
      "ably": 1444,
      "atural": 1445,
      "ways": 1446,
      "Ġben": 1447,
      "oid": 1448,
      "Ġel": 1449,
      "Ġbecome": 1450,
      "ets": 1451,
      "alk": 1452,
      "cience": 1453,
      "Ġhere": 1454,
      "Ġlim": 1455,
      "Ġmean": 1456,
      "ĠLe": 1457,
      "Ġeng": 1458,
      "Ġseveral": 1459,
      "Ġsignific": 1460,
      "ittle": 1461,
      "ended": 1462,
      "Ġmeans": 1463,
      "Ġ12": 1464,
      "elf": 1465,
      "ĠAt": 1466,
      "resent": 1467,
      "Ġsince": 1468,
      "Ġoccur": 1469,
      "min": 1470,
      "Ġperform": 1471,
      "Ġmus": 1472,
      "ĠUniversity": 1473,
      "Ġ198": 1474,
      "urther": 1475,
      "Ġlast": 1476,
      "line": 1477,
      "ogn": 1478,
      "ator": 1479,
      "erc": 1480,
      "oph": 1481,
      "icle": 1482,
      "ĠStates": 1483,
      "Ġfamily": 1484,
      "Ġhig": 1485,
      "ised": 1486,
      "ients": 1487,
      "Ġimpro": 1488,
      "Ġpossible": 1489,
      "ither": 1490,
      "Ġlater": 1491,
      "Ġfin": 1492,
      "Ġtoo": 1493,
      "ograph": 1494,
      "Ġname": 1495,
      "Ġbest": 1496,
      "Ġfour": 1497,
      "ohn": 1498,
      "Ġ16": 1499,
      "Ġsec": 1500,
      "12": 1501,
      "Ġinvol": 1502,
      "Ġaddition": 1503,
      "bs": 1504,
      "hers": 1505,
      "Ġhistory": 1506,
      "Ġ0": 1507,
      "Ġdon": 1508,
      "gen": 1509,
      "Ġve": 1510,
      "Ġnear": 1511,
      "Ġfollowing": 1512,
      "Ġinclude": 1513,
      "por": 1514,
      "omp": 1515,
      "Ġenvironment": 1516,
      "ĠEx": 1517,
      "urope": 1518,
      "Ġobs": 1519,
      "Ġview": 1520,
      "Ġcertain": 1521,
      "Ġothers": 1522,
      "Ġopen": 1523,
      "ression": 1524,
      "ĠCol": 1525,
      "ided": 1526,
      "Ġavail": 1527,
      "Ġmill": 1528,
      "ource": 1529,
      "Ġanim": 1530,
      "ames": 1531,
      "ards": 1532,
      "Ġenergy": 1533,
      "Ġtre": 1534,
      "be": 1535,
      "Ġlangu": 1536,
      "__": 1537,
      "ole": 1538,
      "Ġproject": 1539,
      "ĠWhen": 1540,
      "ged": 1541,
      "rid": 1542,
      "Ġbased": 1543,
      "Ġcountry": 1544,
      "Ġseem": 1545,
      "Ġdel": 1546,
      "Ġgiven": 1547,
      "ploy": 1548,
      "Ġrece": 1549,
      "Ġspecies": 1550,
      "Ġvol": 1551,
      "ried": 1552,
      "ote": 1553,
      "Ġblood": 1554,
      "Ġhome": 1555,
      "ories": 1556,
      "Ġdev": 1557,
      "ĠPl": 1558,
      "Ġassoci": 1559,
      "Ġpain": 1560,
      "iter": 1561,
      "'t": 1562,
      "Ġhead": 1563,
      "Ġthings": 1564,
      "It": 1565,
      "Ġair": 1566,
      "ĠOn": 1567,
      "Ġstruct": 1568,
      "une": 1569,
      "Ġprogram": 1570,
      "Ġobject": 1571,
      "Ġcurrent": 1572,
      "Ġlab": 1573,
      "ĠEurope": 1574,
      "Ġprovide": 1575,
      "Ġbus": 1576,
      "Ġcond": 1577,
      "ances": 1578,
      "Ġ'": 1579,
      "Ġcome": 1580,
      "Ġcal": 1581,
      "Ġuntil": 1582,
      "oint": 1583,
      "ĠTo": 1584,
      "Ġexist": 1585,
      "50": 1586,
      "Ġbetter": 1587,
      "Ġsuccess": 1588,
      "ggest": 1589,
      "use": 1590,
      "Ġlo": 1591,
      "ends": 1592,
      "aken": 1593,
      "Ġlittle": 1594,
      "ling": 1595,
      "Ġcost": 1596,
      "osp": 1597,
      "Ġdescrib": 1598,
      "ledge": 1599,
      "Ġdisease": 1600,
      "Ġfar": 1601,
      "Ġsignificant": 1602,
      "Ġcharacter": 1603,
      "âĢľ": 1604,
      "ĠOr": 1605,
      "ured": 1606,
      "Ġhapp": 1607,
      "):": 1608,
      "Ġhowever": 1609,
      "Ġestab": 1610,
      "Ġfac": 1611,
      "Ġsuggest": 1612,
      "Ġpost": 1613,
      "ĠAf": 1614,
      "stit": 1615,
      "Ġlocal": 1616,
      "Ġtimes": 1617,
      "ann": 1618,
      "Ġappear": 1619,
      "val": 1620,
      "Ġtop": 1621,
      "ĠGerm": 1622,
      "Ġbi": 1623,
      "ĠAll": 1624,
      "ĠBrit": 1625,
      "cer": 1626,
      "ead": 1627,
      "aim": 1628,
      "Ġauthor": 1629,
      "Ġrisk": 1630,
      "ware": 1631,
      "ĠâĢĶ": 1632,
      "Ġable": 1633,
      "Ġlet": 1634,
      "Ġareas": 1635,
      "Ġdeterm": 1636,
      "Ġintern": 1637,
      "Ġprom": 1638,
      "pr": 1639,
      "ately": 1640,
      "Ġcirc": 1641,
      "ĠBe": 1642,
      "Ġcentury": 1643,
      "Ġcause": 1644,
      "ĠJohn": 1645,
      "Ġavailable": 1646,
      "Ġmult": 1647,
      "rap": 1648,
      "\".": 1649,
      "Ġdeath": 1650,
      "aps": 1651,
      "Ġclear": 1652,
      "cing": 1653,
      "Ġfree": 1654,
      "Ġdue": 1655,
      "Ġput": 1656,
      "Ġkeep": 1657,
      "Ġupon": 1658,
      "Ġturn": 1659,
      "icult": 1660,
      "15": 1661,
      "ox": 1662,
      "vious": 1663,
      "ots": 1664,
      "201": 1665,
      "Ġsimilar": 1666,
      "atory": 1667,
      "Ġplant": 1668,
      "ird": 1669,
      "Ġlearn": 1670,
      "Ġline": 1671,
      "urch": 1672,
      "Ġconn": 1673,
      "Ġche": 1674,
      "Ġnever": 1675,
      "ĠUS": 1676,
      "Ġsing": 1677,
      "//": 1678,
      "Ġgeneral": 1679,
      "Ġele": 1680,
      "Ġage": 1681,
      "oman": 1682,
      "ope": 1683,
      "Ġbenef": 1684,
      "Ġnecess": 1685,
      "ued": 1686,
      "ler": 1687,
      "ids": 1688,
      "Ġpress": 1689,
      "Ġfunction": 1690,
      "Ġmonth": 1691,
      "Ġrun": 1692,
      "Ġabove": 1693,
      "ively": 1694,
      "Ġtype": 1695,
      "over": 1696,
      "ification": 1697,
      "Ġproblem": 1698,
      "Ġtreatment": 1699,
      "Ġvir": 1700,
      "Ġpopulation": 1701,
      "ĠGen": 1702,
      "Ġcrit": 1703,
      "Ġdays": 1704,
      "Ġaffect": 1705,
      "Ġnatural": 1706,
      "Ġshort": 1707,
      "Ġfeel": 1708,
      "Ġbecame": 1709,
      "ĠMar": 1710,
      "Ġrepresent": 1711,
      "Ġrad": 1712,
      "app": 1713,
      "ĠSc": 1714,
      "Ġinvest": 1715,
      "ysis": 1716,
      "selves": 1717,
      "13": 1718,
      "ley": 1719,
      "As": 1720,
      "://": 1721,
      "ones": 1722,
      "orld": 1723,
      "Ġbehav": 1724,
      "ane": 1725,
      "Ġ197": 1726,
      "17": 1727,
      "iol": 1728,
      "Ġfil": 1729,
      "Ġrelations": 1730,
      "nal": 1731,
      "Ġaccess": 1732,
      "aining": 1733,
      "Ġlist": 1734,
      "Ġalong": 1735,
      "Ġleft": 1736,
      "Ġcomb": 1737,
      "wh": 1738,
      "ication": 1739,
      "ĠSo": 1740,
      "Ġinflu": 1741,
      "ray": 1742,
      "Ġ14": 1743,
      "14": 1744,
      "by": 1745,
      "ending": 1746,
      "port": 1747,
      "ribut": 1748,
      "Ġsubject": 1749,
      "for": 1750,
      "ills": 1751,
      "ĠCan": 1752,
      "16": 1753,
      "Ġess": 1754,
      "iam": 1755,
      "Ġalways": 1756,
      "Ġrelig": 1757,
      "Ġpercent": 1758,
      "Ġdiscuss": 1759,
      "agement": 1760,
      "idd": 1761,
      "yl": 1762,
      "ember": 1763,
      "face": 1764,
      "Ġindust": 1765,
      "ont": 1766,
      "most": 1767,
      "Ġer": 1768,
      "Ġhard": 1769,
      "ocus": 1770,
      "ae": 1771,
      "Ġtru": 1772,
      "Ġsw": 1773,
      "edi": 1774,
      "cle": 1775,
      "istic": 1776,
      "Ġvarious": 1777,
      "Ġpa": 1778,
      "ĠBl": 1779,
      "ĠWar": 1780,
      "ething": 1781,
      "Ġdra": 1782,
      ",\"": 1783,
      "Ġcells": 1784,
      "30": 1785,
      "Ġprim": 1786,
      "Ġrecord": 1787,
      "Ġflow": 1788,
      "Ġdifficult": 1789,
      "Ġcommunity": 1790,
      "Ġyoung": 1791,
      "pecially": 1792,
      "oks": 1793,
      "ruction": 1794,
      "Ġlevels": 1795,
      "NA": 1796,
      "aster": 1797,
      "Ġlanguage": 1798,
      "mber": 1799,
      "work": 1800,
      "rate": 1801,
      "Ġamount": 1802,
      "Ġreason": 1803,
      "Ġleast": 1804,
      "Ġconsider": 1805,
      "Ġhigher": 1806,
      "Ġresults": 1807,
      "ĠCent": 1808,
      "etic": 1809,
      "Ġbook": 1810,
      "Ġsystems": 1811,
      "Ġspecific": 1812,
      "Ġstrong": 1813,
      "Ġpolitical": 1814,
      "Ġgive": 1815,
      "Ġcourse": 1816,
      "Ġoffic": 1817,
      "Ġcho": 1818,
      "rim": 1819,
      "asing": 1820,
      "ĠAfric": 1821,
      "af": 1822,
      "ĠWhat": 1823,
      "mm": 1824,
      "Ġkind": 1825,
      "ĠNational": 1826,
      "Ġrespons": 1827,
      "ĠTe": 1828,
      "Ġwords": 1829,
      "ape": 1830,
      "Ġside": 1831,
      "Ġprevent": 1832,
      "Ġeducation": 1833,
      "Ġself": 1834,
      "ges": 1835,
      "ored": 1836,
      "uture": 1837,
      "Ġstudies": 1838,
      "Ġproblems": 1839,
      "Ġsaf": 1840,
      "ek": 1841,
      "Ġmaking": 1842,
      "Ġcreat": 1843,
      "--": 1844,
      "erence": 1845,
      "amm": 1846,
      "Ġdom": 1847,
      "eb": 1848,
      "Ġmot": 1849,
      "Ġconditions": 1850,
      "Ġill": 1851,
      "Ġrele": 1852,
      "Ġaccount": 1853,
      "ilt": 1854,
      "Ġusually": 1855,
      "Ġindic": 1856,
      "Ġpast": 1857,
      "Ġtri": 1858,
      "duct": 1859,
      "Ġlikely": 1860,
      "Ġincrease": 1861,
      "apt": 1862,
      "Ġrather": 1863,
      "Ġplac": 1864,
      "Ġstat": 1865,
      "ators": 1866,
      "Ġhaving": 1867,
      "Ġsomething": 1868,
      "Ġmov": 1869,
      "enn": 1870,
      "ode": 1871,
      "Ġpolic": 1872,
      "Ġcame": 1873,
      "oney": 1874,
      "Ġhouse": 1875,
      "ortun": 1876,
      "ales": 1877,
      "Ġbegin": 1878,
      "Ġexperience": 1879,
      "cul": 1880,
      "Ġfurther": 1881,
      "ĠMed": 1882,
      "acy": 1883,
      "Ġlearning": 1884,
      "Ġsays": 1885,
      "ott": 1886,
      "Ġ$": 1887,
      "Ġscient": 1888,
      "augh": 1889,
      "ĠSy": 1890,
      "let": 1891,
      "co": 1892,
      "Ġquestion": 1893,
      "alf": 1894,
      "my": 1895,
      "Ġcases": 1896,
      "Ġ13": 1897,
      "Ġrequire": 1898,
      "Ġask": 1899,
      "Ġenc": 1900,
      "ument": 1901,
      "ai": 1902,
      "Ġknowledge": 1903,
      "Ġtoward": 1904,
      "Ġcity": 1905,
      "orts": 1906,
      "thing": 1907,
      "Ġfocus": 1908,
      "Ġgroups": 1909,
      "Ġmembers": 1910,
      "Ġmind": 1911,
      "ours": 1912,
      "Ġapplic": 1913,
      "Ġcountries": 1914,
      "Ġchanges": 1915,
      "uation": 1916,
      "ĠOne": 1917,
      "ĠJew": 1918,
      "Ġmodel": 1919,
      "sw": 1920,
      "Ġeither": 1921,
      "ery": 1922,
      "Ġeffects": 1923,
      "rated": 1924,
      "Ġcomplete": 1925,
      "rel": 1926,
      "Ġobserv": 1927,
      "ĠGo": 1928,
      "omes": 1929,
      "mp": 1930,
      "ilities": 1931,
      "Ġspecial": 1932,
      "Ġ=": 1933,
      "Ġvalue": 1934,
      "sych": 1935,
      "Ġmor": 1936,
      "Ġz": 1937,
      "ivil": 1938,
      "ĠHis": 1939,
      "Ã©": 1940,
      "ites": 1941,
      "Ġtemper": 1942,
      "Ġwhether": 1943,
      "ĠAb": 1944,
      "Ġespecially": 1945,
      "ĠYork": 1946,
      "ipp": 1947,
      "Ġgr": 1948,
      "Ġaway": 1949,
      "ibility": 1950,
      "Ġbusiness": 1951,
      "Ġpatients": 1952,
      "sequ": 1953,
      "aves": 1954,
      "ober": 1955,
      "Ġprob": 1956,
      "Ġseen": 1957,
      "Ġnext": 1958,
      "Ġarg": 1959,
      "Ġabs": 1960,
      "gether": 1961,
      "Ġtogether": 1962,
      "ung": 1963,
      "rug": 1964,
      "igure": 1965,
      "oot": 1966,
      "ateg": 1967,
      "iple": 1968,
      "ER": 1969,
      "ches": 1970,
      "Ġsens": 1971,
      "ison": 1972,
      "itary": 1973,
      "Ġ30": 1974,
      "Ġrole": 1975,
      "Ġnational": 1976,
      "ique": 1977,
      "Ġnature": 1978,
      "fer": 1979,
      "iation": 1980,
      "Ġemploy": 1981,
      "hing": 1982,
      "Ġhtt": 1983,
      "Ġproduction": 1984,
      "Ġnet": 1985,
      "Ġimpact": 1986,
      "side": 1987,
      "chie": 1988,
      "Ġheart": 1989,
      "Ġreturn": 1990,
      "ĠWorld": 1991,
      "Ġevidence": 1992,
      "ĠCar": 1993,
      "ĠSome": 1994,
      "Ġground": 1995,
      "put": 1996,
      "Ġdest": 1997,
      "Ġcannot": 1998,
      "Ġfull": 1999,
      "Ġtot": 2000,
      "ĠEn": 2001,
      "ĠGe": 2002,
      "Ġsent": 2003,
      "mpt": 2004,
      "Ġnorm": 2005,
      "Ġfuture": 2006,
      "lection": 2007,
      "unt": 2008,
      "Ġclaim": 2009,
      "Ġneg": 2010,
      "ĠEnglish": 2011,
      "Ġneeds": 2012,
      "Ġwhole": 2013,
      "We": 2014,
      "Ġ196": 2015,
      "ready": 2016,
      "epend": 2017,
      "Ġacross": 2018,
      "There": 2019,
      "Ġtradition": 2020,
      "rict": 2021,
      "itud": 2022,
      "reen": 2023,
      "Ġlower": 2024,
      "Ġfail": 2025,
      "icro": 2026,
      "Ġenough": 2027,
      "Ġtaken": 2028,
      "ule": 2029,
      "Ġsingle": 2030,
      "Ġwhy": 2031,
      "Ġgoing": 2032,
      "Ġdri": 2033,
      "Ġrecogn": 2034,
      "yn": 2035,
      "Ġconsidered": 2036,
      "Ġcomput": 2037,
      "org": 2038,
      "Ġconsum": 2039,
      "Ġthemselves": 2040,
      "...": 2041,
      "Ġfrequ": 2042,
      "Ġfund": 2043,
      "Ġmass": 2044,
      "sh": 2045,
      "Ġinit": 2046,
      "ream": 2047,
      "If": 2048,
      "ony": 2049,
      "Ġparticip": 2050,
      "Ġpub": 2051,
      "obal": 2052,
      "ols": 2053,
      "Ġitself": 2054,
      "Ġter": 2055,
      "eds": 2056,
      "Ġpred": 2057,
      "Ġtry": 2058,
      "ee": 2059,
      "ĠMay": 2060,
      "Ġeff": 2061,
      "Ġspace": 2062,
      "ĠAm": 2063,
      "Ġclose": 2064,
      "Ġworks": 2065,
      "rie": 2066,
      "ires": 2067,
      "reg": 2068,
      "What": 2069,
      "ĠShe": 2070,
      "atch": 2071,
      "iting": 2072,
      "aching": 2073,
      "St": 2074,
      "Ġparent": 2075,
      "Ġteac": 2076,
      "Ġtoday": 2077,
      "Ġdone": 2078,
      "Ġword": 2079,
      "ĠWith": 2080,
      ".)": 2081,
      "ĠBy": 2082,
      "Ġey": 2083,
      "illed": 2084,
      "Ġalready": 2085,
      "Ġmillion": 2086,
      "ĠTr": 2087,
      "ĠThat": 2088,
      "empt": 2089,
      "plic": 2090,
      "itor": 2091,
      "Ġworking": 2092,
      "Ġdam": 2093,
      "aring": 2094,
      "Ġconcept": 2095,
      "Ġver": 2096,
      "An": 2097,
      "Ġdeg": 2098,
      "ĠSouth": 2099,
      "Ġcy": 2100,
      "Ġassociated": 2101,
      "eter": 2102,
      "Ġtook": 2103,
      "ĠIntern": 2104,
      "ĠSoc": 2105,
      "Ġrate": 2106,
      "rown": 2107,
      "ene": 2108,
      "Ġthought": 2109,
      "Ġfall": 2110,
      "ĠRep": 2111,
      "ĠNorth": 2112,
      "osis": 2113,
      "Ġgrowth": 2114,
      "Ġdr": 2115,
      "ĠMan": 2116,
      "rad": 2117,
      "son": 2118,
      "olic": 2119,
      "Ġstates": 2120,
      "Ġmeet": 2121,
      "Ġphysical": 2122,
      "Ġrelationship": 2123,
      "etimes": 2124,
      "ournal": 2125,
      "Ġonce": 2126,
      "Ġ194": 2127,
      "âĢ¦": 2128,
      "oses": 2129,
      "Ġhistor": 2130,
      "fact": 2131,
      "atures": 2132,
      "Ġpurp": 2133,
      "ript": 2134,
      "Ġrange": 2135,
      "Ġtext": 2136,
      "Ġregard": 2137,
      "Ġbir": 2138,
      "Ġfield": 2139,
      "utions": 2140,
      "Ġhold": 2141,
      "ĠX": 2142,
      "ĠII": 2143,
      "Ġeconomic": 2144,
      "Ġoil": 2145,
      "22": 2146,
      "fficient": 2147,
      "Ġachie": 2148,
      "Ġur": 2149,
      "Ġmodern": 2150,
      "Ġbegan": 2151,
      "Ġpotential": 2152,
      "roll": 2153,
      "het": 2154,
      "Ġanalysis": 2155,
      "ĠEar": 2156,
      "Ġdeveloped": 2157,
      "Ġri": 2158,
      "ĠBritish": 2159,
      "Ġtypes": 2160,
      "Ġpriv": 2161,
      "ask": 2162,
      "verage": 2163,
      "Ġevent": 2164,
      "ĠNe": 2165,
      "Ġentire": 2166,
      "ened": 2167,
      "Ġimprove": 2168,
      "Ġincreased": 2169,
      "Ġrequired": 2170,
      "lo": 2171,
      "ressed": 2172,
      "rect": 2173,
      "Ġmarket": 2174,
      "Ġport": 2175,
      "atter": 2176,
      "Ġprofess": 2177,
      "usion": 2178,
      "urity": 2179,
      "Ch": 2180,
      "Ġreally": 2181,
      "Ġopt": 2182,
      "Ġactivity": 2183,
      "ĠAct": 2184,
      "Ġrights": 2185,
      "reme": 2186,
      "Ġkey": 2187,
      "Ġmakes": 2188,
      "ĠAmerica": 2189,
      "Ġbr": 2190,
      "Ġcreate": 2191,
      "ront": 2192,
      "Ġfive": 2193,
      "Ġsepar": 2194,
      "chan": 2195,
      "Ġshall": 2196,
      "hib": 2197,
      "irit": 2198,
      "ĠNo": 2199,
      "Ġcollect": 2200,
      "Ġways": 2201,
      "arc": 2202,
      "Ġpay": 2203,
      "Ġchem": 2204,
      "Ġvers": 2205,
      "Ġposition": 2206,
      "199": 2207,
      "Ġwhite": 2208,
      "go": 2209,
      "ĠCal": 2210,
      "irm": 2211,
      "ĠGu": 2212,
      "Ġlive": 2213,
      "ivity": 2214,
      "ables": 2215,
      "Ġpath": 2216,
      "Ġplants": 2217,
      "Ġsize": 2218,
      "like": 2219,
      "Ġla": 2220,
      "25": 2221,
      "Ġaccept": 2222,
      "Ġbrain": 2223,
      "Ġarticle": 2224,
      "overed": 2225,
      "Ġcomplex": 2226,
      "Ġalmost": 2227,
      "nces": 2228,
      "ights": 2229,
      "Ġsource": 2230,
      "Ġliving": 2231,
      "aut": 2232,
      "Ġstep": 2233,
      "Ġnecessary": 2234,
      "Ġterms": 2235,
      "Ġconcern": 2236,
      "Ġlay": 2237,
      "ume": 2238,
      "Ġsuper": 2239,
      "Ġbelow": 2240,
      "Ġliter": 2241,
      "Ġbar": 2242,
      "estern": 2243,
      "Ġwind": 2244,
      "ĠAust": 2245,
      "Ġdetail": 2246,
      "Ġfri": 2247,
      "Ġtechnology": 2248,
      "Ġrespect": 2249,
      "Ġsam": 2250,
      "Ġann": 2251,
      "acks": 2252,
      "Ġsurface": 2253,
      "Ġrul": 2254,
      "Ġrelated": 2255,
      "Ġintrodu": 2256,
      "Ġloss": 2257,
      "Ġsympt": 2258,
      "Ġwide": 2259,
      "Ġsociety": 2260,
      "itted": 2261,
      "alt": 2262,
      "ops": 2263,
      "Ġsense": 2264,
      "ĠAg": 2265,
      "Ġrev": 2266,
      "ĠCo": 2267,
      "Ġstory": 2268,
      "Ġ25": 2269,
      "Ġmaint": 2270,
      "Ġyet": 2271,
      "ĠState": 2272,
      "How": 2273,
      "Ġaccording": 2274,
      "ĠPar": 2275,
      "ĠComp": 2276,
      "Ġsite": 2277,
      "AT": 2278,
      "ĠHist": 2279,
      "onse": 2280,
      "Ġheav": 2281,
      "dom": 2282,
      "Ġpractice": 2283,
      "ĠAss": 2284,
      "apan": 2285,
      "osition": 2286,
      "Ġtotal": 2287,
      "Ġprote": 2288,
      "Ġlib": 2289,
      "Ġtrue": 2290,
      "Ġquality": 2291,
      "Ġ11": 2292,
      "Ġens": 2293,
      "Ġidea": 2294,
      "attle": 2295,
      "amb": 2296,
      "oura": 2297,
      "Ġtell": 2298,
      "Ġcr": 2299,
      "Ġcut": 2300,
      "minist": 2301,
      "Ġactivities": 2302,
      "aged": 2303,
      "rams": 2304,
      "Ġsoil": 2305,
      "Ġmoney": 2306,
      "izing": 2307,
      "ister": 2308,
      "Ġcreated": 2309,
      "Ġchall": 2310,
      "Ġbuilding": 2311,
      "ese": 2312,
      "rench": 2313,
      "Ġbig": 2314,
      "Ġservice": 2315,
      "Ġaction": 2316,
      "Ġsubst": 2317,
      "Ġsett": 2318,
      "Ġred": 2319,
      "hold": 2320,
      "Ġscience": 2321,
      "Ġfactors": 2322,
      "Ġvari": 2323,
      "oll": 2324,
      "ney": 2325,
      "Ġapproach": 2326,
      "sc": 2327,
      "sp": 2328,
      "Ġdrug": 2329,
      "ensive": 2330,
      "vere": 2331,
      "Ġconduct": 2332,
      "Ġissues": 2333,
      "Ġdoc": 2334,
      "Ġresources": 2335,
      "ĠPr": 2336,
      "Ġregion": 2337,
      "Ġansw": 2338,
      "Ġprotect": 2339,
      "ush": 2340,
      "Ġhalf": 2341,
      "Ġservices": 2342,
      "Ġthus": 2343,
      "itation": 2344,
      "Ġdig": 2345,
      "Ġbur": 2346,
      "ĠAfter": 2347,
      "ES": 2348,
      "ĠWill": 2349,
      "ched": 2350,
      "Ġfamil": 2351,
      "Ġsex": 2352,
      "Ġfire": 2353,
      "ID": 2354,
      "Ġviol": 2355,
      "Ġcancer": 2356,
      "onst": 2357,
      "iding": 2358,
      "Ġrepl": 2359,
      "ĠKing": 2360,
      "ival": 2361,
      "ief": 2362,
      "ĠRet": 2363,
      "Ġflu": 2364,
      "Ġoriginal": 2365,
      "ĠÂ": 2366,
      "Ġep": 2367,
      "Ġsound": 2368,
      "ply": 2369,
      "Ġrelative": 2370,
      "Ġprevious": 2371,
      "oly": 2372,
      "Ġreact": 2373,
      "Ġneeded": 2374,
      "istance": 2375,
      "Ġattempt": 2376,
      "Ġever": 2377,
      "Ġtherefore": 2378,
      "Ġmeasure": 2379,
      "Ġmatter": 2380,
      "uel": 2381,
      "amin": 2382,
      "Ġprovided": 2383,
      "Ġassess": 2384,
      "For": 2385,
      "Ġblack": 2386,
      "Ġtar": 2387,
      "Ġproducts": 2388,
      "AR": 2389,
      "Ġforce": 2390,
      "Ġactually": 2391,
      "Ġpressure": 2392,
      "Ġreported": 2393,
      "ĠJes": 2394,
      "urs": 2395,
      "Ġdiv": 2396,
      "iment": 2397,
      "iddle": 2398,
      "Ġindividuals": 2399,
      "ĠSch": 2400,
      "eration": 2401,
      "ha": 2402,
      "Ġshown": 2403,
      "Ġsuff": 2404,
      "Ġpaper": 2405,
      "Ġdeb": 2406,
      "artment": 2407,
      "Ġsix": 2408,
      "ilos": 2409,
      "eed": 2410,
      "rought": 2411,
      "Ġstructure": 2412,
      "Ġmonths": 2413,
      "aries": 2414,
      "erve": 2415,
      "ĠJapan": 2416,
      "Ġmanagement": 2417,
      "23": 2418,
      "bon": 2419,
      "Ġpattern": 2420,
      "Ġrecomm": 2421,
      "uth": 2422,
      "Ġparts": 2423,
      "Al": 2424,
      "Ġfem": 2425,
      "ederal": 2426,
      "Ġut": 2427,
      "Ġsure": 2428,
      "earch": 2429,
      "ging": 2430,
      "Ġunderstanding": 2431,
      "ĠHealth": 2432,
      "oles": 2433,
      "Ġaff": 2434,
      "Ġpp": 2435,
      "Ġsymptoms": 2436,
      "atives": 2437,
      "Ġarch": 2438,
      "gest": 2439,
      "Ġearth": 2440,
      "iction": 2441,
      "Ġlot": 2442,
      "Ġemer": 2443,
      "Ġge": 2444,
      "24": 2445,
      "ĠPress": 2446,
      "Ġmeaning": 2447,
      "ĠStud": 2448,
      "Ġanimals": 2449,
      "Ġpersonal": 2450,
      "Ġdoct": 2451,
      "Ġeffective": 2452,
      "Ġbuilt": 2453,
      "Ġfa": 2454,
      "arily": 2455,
      "ĠPe": 2456,
      "ucle": 2457,
      "Ġsat": 2458,
      "Ġmilitary": 2459,
      "acc": 2460,
      "When": 2461,
      "ulations": 2462,
      "ump": 2463,
      "21": 2464,
      "ĠEd": 2465,
      "Ġpopular": 2466,
      "Ġability": 2467,
      "lying": 2468,
      "Ġ100": 2469,
      "Ġ24": 2470,
      "oon": 2471,
      "ĠPres": 2472,
      "aff": 2473,
      "lex": 2474,
      "ĠSu": 2475,
      "Ġphot": 2476,
      "Ġmechan": 2477,
      "Ġnut": 2478,
      "ached": 2479,
      "ma": 2480,
      "à¤": 2481,
      "cil": 2482,
      "ores": 2483,
      "Ġgreater": 2484,
      "Ġteam": 2485,
      "Ġmovement": 2486,
      "ĠDep": 2487,
      "Ġincreasing": 2488,
      "ĠIndia": 2489,
      "Ġhimself": 2490,
      "Ġ50": 2491,
      "isc": 2492,
      "Ġsun": 2493,
      "know": 2494,
      "Ġorigin": 2495,
      "Ġquestions": 2496,
      "lt": 2497,
      "lor": 2498,
      "ips": 2499,
      "ada": 2500,
      "Ġcondition": 2501,
      "Ġrefer": 2502,
      "Ġlonger": 2503,
      "based": 2504,
      "Ġavoid": 2505,
      "Ġculture": 2506,
      "inary": 2507,
      "Ġresponse": 2508,
      "ana": 2509,
      "Ġtheory": 2510,
      "Ġcop": 2511,
      "Ġsurv": 2512,
      "Ġthing": 2513,
      "Ġmedical": 2514,
      "Ġtax": 2515,
      "Ġbehavior": 2516,
      "Ġsimple": 2517,
      "pro": 2518,
      "ceed": 2519,
      "IN": 2520,
      "Ġquick": 2521,
      "istics": 2522,
      "rew": 2523,
      "Ġsou": 2524,
      "Ġpublished": 2525,
      "Ġconsist": 2526,
      "ĠAug": 2527,
      "ĠMin": 2528,
      "Ġstandard": 2529,
      "erous": 2530,
      "rast": 2531,
      "Ġ,": 2532,
      "Ġattack": 2533,
      "ON": 2534,
      "Ġled": 2535,
      "vey": 2536,
      "ribution": 2537,
      "ĠPer": 2538,
      "ius": 2539,
      "Ġadult": 2540,
      "Ġemb": 2541,
      "imately": 2542,
      "ising": 2543,
      "Ġgenerally": 2544,
      "Ġetc": 2545,
      "Ġcoun": 2546,
      "ĠMe": 2547,
      "Ġfarm": 2548,
      "rand": 2549,
      "Ġopportun": 2550,
      "ĠHar": 2551,
      "uck": 2552,
      "Ġcompet": 2553,
      "Ġpolicy": 2554,
      "bo": 2555,
      "Ġcivil": 2556,
      "Ġcoll": 2557,
      "Ġheld": 2558,
      "Ġcomes": 2559,
      "Ġbelieve": 2560,
      "Ġforms": 2561,
      "ster": 2562,
      "ze": 2563,
      "Ġpsych": 2564,
      "ening": 2565,
      "ĠJan": 2566,
      "Ġwritten": 2567,
      "aging": 2568,
      "reng": 2569,
      "ĠFrench": 2570,
      "ĠCont": 2571,
      "Ġproduce": 2572,
      "ections": 2573,
      "Ġdou": 2574,
      "utes": 2575,
      "fully": 2576,
      "amed": 2577,
      "rieved": 2578,
      "Ġlove": 2579,
      "uk": 2580,
      "Ġfish": 2581,
      "leep": 2582,
      "Ġthroughout": 2583,
      "Ġdiet": 2584,
      "Ġtraining": 2585,
      "ington": 2586,
      "Ġcamp": 2587,
      "Ġwent": 2588,
      "Ġcompany": 2589,
      "Ġindepend": 2590,
      "Ġreview": 2591,
      "AS": 2592,
      "Ġengine": 2593,
      "new": 2594,
      "ength": 2595,
      "verse": 2596,
      "www": 2597,
      "haps": 2598,
      "Ġprovides": 2599,
      "inter": 2600,
      "lim": 2601,
      "Ġaddress": 2602,
      "pri": 2603,
      "Ġmethods": 2604,
      "ĠJu": 2605,
      "Ġlate": 2606,
      "Ġestablished": 2607,
      "Ġincluded": 2608,
      "lands": 2609,
      "li": 2610,
      "ror": 2611,
      "Ġlack": 2612,
      "Ġpoor": 2613,
      "Ġreduce": 2614,
      "hood": 2615,
      "Ġfeed": 2616,
      "Ġeth": 2617,
      "ricult": 2618,
      "Ġsometimes": 2619,
      "Ġcross": 2620,
      "ĠJesus": 2621,
      "ĠGerman": 2622,
      "ban": 2623,
      "ows": 2624,
      "ĠWhile": 2625,
      "Ġbring": 2626,
      "Ġinteract": 2627,
      "uary": 2628,
      "rial": 2629,
      "Ġsimply": 2630,
      "OR": 2631,
      "emic": 2632,
      "Ġlink": 2633,
      "Ġtravel": 2634,
      "ĠChristian": 2635,
      "Ġjud": 2636,
      "Ġcontent": 2637,
      "ĠFran": 2638,
      "Ġshows": 2639,
      "Ġste": 2640,
      "Ġglobal": 2641,
      "Ġalthough": 2642,
      "ccording": 2643,
      "40": 2644,
      "Ġdeep": 2645,
      "rapy": 2646,
      "Ġtown": 2647,
      "Ġtaking": 2648,
      "Ġord": 2649,
      "anced": 2650,
      "isions": 2651,
      "ctions": 2652,
      "Ġi": 2653,
      "Ġweight": 2654,
      "Ġdog": 2655,
      "Ġsold": 2656,
      "icles": 2657,
      "order": 2658,
      "Ġparticularly": 2659,
      "Ġinstit": 2660,
      "Ġtarget": 2661,
      "ĠRuss": 2662,
      "Ġdescribed": 2663,
      "itude": 2664,
      "Ġjob": 2665,
      "ĠDo": 2666,
      "ift": 2667,
      "rael": 2668,
      "ĠPart": 2669,
      "abor": 2670,
      "rance": 2671,
      "Ġobt": 2672,
      "26": 2673,
      "Ġmother": 2674,
      "aling": 2675,
      "erson": 2676,
      "Ġfat": 2677,
      "rary": 2678,
      "Ġrecent": 2679,
      "Ġdemonst": 2680,
      "ĠIndian": 2681,
      "Ġface": 2682,
      "Ġtemperature": 2683,
      "Ġexc": 2684,
      "Ġsoft": 2685,
      "ety": 2686,
      "Ġprobably": 2687,
      "enced": 2688,
      "Ġking": 2689,
      "ĠInt": 2690,
      "Ġevents": 2691,
      "Ġcommand": 2692,
      "Ġlog": 2693,
      "ades": 2694,
      "abit": 2695,
      "Ġap": 2696,
      "AN": 2697,
      "Ġhours": 2698,
      "ĠChina": 2699,
      "cies": 2700,
      "ĠBo": 2701,
      "set": 2702,
      "Ġpositive": 2703,
      "Ġinvolved": 2704,
      "IS": 2705,
      "Ġleaders": 2706,
      "rs": 2707,
      "yle": 2708,
      "Ġskin": 2709,
      "Ġmach": 2710,
      "hel": 2711,
      "Ġmusic": 2712,
      "Ġissue": 2713,
      "Ġmaterials": 2714,
      "na": 2715,
      "Ġconcent": 2716,
      "Ġinterp": 2717,
      "ĠApp": 2718,
      "Ġwhose": 2719,
      "Ġremov": 2720,
      "Ġcit": 2721,
      "80": 2722,
      "Ġproduced": 2723,
      "27": 2724,
      "Ġclimate": 2725,
      "Ġcust": 2726,
      "ext": 2727,
      "Ġoutside": 2728,
      "Ġtalk": 2729,
      "imum": 2730,
      "Ġcapital": 2731,
      "ĠQu": 2732,
      "Ġexerc": 2733,
      "Ġce": 2734,
      "Ġcaused": 2735,
      "bor": 2736,
      "Ġreligious": 2737,
      "leg": 2738,
      "Ġstreng": 2739,
      "Ġinteg": 2740,
      "olar": 2741,
      "Ġful": 2742,
      "To": 2743,
      "vention": 2744,
      "ender": 2745,
      "pril": 2746,
      "ĠRetrieved": 2747,
      "ĠGree": 2748,
      "Ġcompon": 2749,
      "Ġmedic": 2750,
      "Ġhttp": 2751,
      "aving": 2752,
      "Ġschools": 2753,
      "Ġindustry": 2754,
      "gar": 2755,
      "Ġappl": 2756,
      "elt": 2757,
      "Ġ2010": 2758,
      "Ġmicro": 2759,
      "Ġdefin": 2760,
      "Ġstri": 2761,
      "Ġseems": 2762,
      "Ġdecl": 2763,
      "Ġspirit": 2764,
      "29": 2765,
      "Ġaverage": 2766,
      "Ġthird": 2767,
      "Ġstress": 2768,
      "Ġprec": 2769,
      "Ġimplement": 2770,
      "Ġfather": 2771,
      "Ġstudent": 2772,
      "ĠAugust": 2773,
      "ĠMus": 2774,
      "asc": 2775,
      "where": 2776,
      "Ġexcept": 2777,
      "umb": 2778,
      "fect": 2779,
      "ĠWest": 2780,
      "Ġselect": 2781,
      "Ġpie": 2782,
      "ension": 2783,
      "ises": 2784,
      "see": 2785,
      "Ġwriting": 2786,
      "Ġgas": 2787,
      "ĠChar": 2788,
      "light": 2789,
      "Ġfav": 2790,
      "Ġ/": 2791,
      "ĠEuropean": 2792,
      "rote": 2793,
      "On": 2794,
      "Ġbreak": 2795,
      "Ġquite": 2796,
      "ĠOct": 2797,
      "Ġson": 2798,
      "ĠIS": 2799,
      "Ġcat": 2800,
      "Ġthreat": 2801,
      "Ġconstit": 2802,
      "ronic": 2803,
      "Ġnight": 2804,
      "ecause": 2805,
      "Ġinternational": 2806,
      "Ġparents": 2807,
      "Ġir": 2808,
      "ĠCor": 2809,
      "cious": 2810,
      "Ġstop": 2811,
      "Ġmention": 2812,
      "Ġlabor": 2813,
      "ĠIsrael": 2814,
      ");": 2815,
      "cell": 2816,
      "60": 2817,
      "Ġcentral": 2818,
      "Ġcolor": 2819,
      "uman": 2820,
      "ned": 2821,
      "Ġbrought": 2822,
      "ev": 2823,
      "28": 2824,
      "den": 2825,
      "ĠDr": 2826,
      "ĠMarch": 2827,
      "aul": 2828,
      "ĠDes": 2829,
      "Ġprograms": 2830,
      "Ġcompan": 2831,
      "osure": 2832,
      "duc": 2833,
      "ĠArt": 2834,
      "ĠChurch": 2835,
      "ogen": 2836,
      "raft": 2837,
      "Ġvalues": 2838,
      "Ġcapt": 2839,
      "Ġinvestig": 2840,
      "Ġprimary": 2841,
      "Ġslow": 2842,
      "Ġinfluence": 2843,
      "Ġweek": 2844,
      "undred": 2845,
      "Ġforces": 2846,
      "hy": 2847,
      "Ġsources": 2848,
      "Ġple": 2849,
      "Ġhor": 2850,
      "ĠCom": 2851,
      "ĠJune": 2852,
      "Ġattention": 2853,
      "Ġnormal": 2854,
      "Ġder": 2855,
      "ls": 2856,
      "Ġdoing": 2857,
      "Ġsil": 2858,
      "Ġimmedi": 2859,
      "aly": 2860,
      "ĠGovern": 2861,
      "Ġskills": 2862,
      "Ġadminist": 2863,
      "ufact": 2864,
      "ĠSept": 2865,
      "lation": 2866,
      "Ġspeak": 2867,
      "ridge": 2868,
      "Ġwall": 2869,
      "Ġ2011": 2870,
      "Ġseries": 2871,
      "osing": 2872,
      "Ġreceived": 2873,
      "Ġcontain": 2874,
      "Ġreflect": 2875,
      "Ġappropri": 2876,
      "Ġhost": 2877,
      "ĠResearch": 2878,
      "aches": 2879,
      "anks": 2880,
      "ondon": 2881,
      "Ġchemical": 2882,
      "astic": 2883,
      "ĠWilliam": 2884,
      "ads": 2885,
      "Ġmess": 2886,
      "mon": 2887,
      "uge": 2888,
      "ira": 2889,
      "Ġcontact": 2890,
      "Ġdiagn": 2891,
      "Ġforest": 2892,
      "Ġreading": 2893,
      "Ġnorth": 2894,
      "Ġdesigned": 2895,
      "Ġsection": 2896,
      "Ġcomputer": 2897,
      "Ġagree": 2898,
      "men": 2899,
      "Ġestim": 2900,
      "ĠAustral": 2901,
      "Ġreve": 2902,
      "ari": 2903,
      "____": 2904,
      "inct": 2905,
      "Ġincludes": 2906,
      "pid": 2907,
      "Ġdisp": 2908,
      "Ġlimited": 2909,
      "Ġsqu": 2910,
      "ĠAlthough": 2911,
      "Ġdirectly": 2912,
      "lier": 2913,
      "Ġimage": 2914,
      "aily": 2915,
      "Ġinj": 2916,
      "Ġcompared": 2917,
      "ham": 2918,
      "Ġox": 2919,
      "Ġ2008": 2920,
      "ĠMore": 2921,
      "Ġtraditional": 2922,
      "ĠEarth": 2923,
      "Ġdispl": 2924,
      "arr": 2925,
      "Ġpurpose": 2926,
      "ners": 2927,
      "Ġofficial": 2928,
      "ĠJournal": 2929,
      "Ġbill": 2930,
      "Ġmount": 2931,
      "asons": 2932,
      "Ġfeet": 2933,
      "Ġsal": 2934,
      "Ġsoon": 2935,
      "Ġpoints": 2936,
      "Ġbroad": 2937,
      "ino": 2938,
      "ying": 2939,
      "Ġenvironmental": 2940,
      "isms": 2941,
      "ography": 2942,
      "Ġspread": 2943,
      "Ġcorrect": 2944,
      "ĠMany": 2945,
      "Ġheat": 2946,
      "Ġtowards": 2947,
      "Ġanimal": 2948,
      "35": 2949,
      "Ġbasic": 2950,
      "You": 2951,
      "Ġnetwork": 2952,
      "Ġ2009": 2953,
      "used": 2954,
      "Ġcauses": 2955,
      "Ġbeginning": 2956,
      "Ġ|": 2957,
      "right": 2958,
      "Ġaspect": 2959,
      "ider": 2960,
      "Ġeval": 2961,
      "Ġmagn": 2962,
      "Ġsequ": 2963,
      "Ġestablish": 2964,
      "ĠSm": 2965,
      "Ġ40": 2966,
      "Ġmedia": 2967,
      "Ġclin": 2968,
      "Ġlarger": 2969,
      "Ġbal": 2970,
      "ĠDav": 2971,
      "Ġinstead": 2972,
      "Ġlaws": 2973,
      "Ġextreme": 2974,
      "ford": 2975,
      "Ġ2007": 2976,
      "Ġwild": 2977,
      "hern": 2978,
      "ĠLord": 2979,
      "Ġvariety": 2980,
      "Ġlives": 2981,
      "Ġdecre": 2982,
      "Ġpatient": 2983,
      "Ġprior": 2984,
      "Ġfront": 2985,
      "Ġthous": 2986,
      "ĠJuly": 2987,
      "lin": 2988,
      "Ġperm": 2989,
      "Ġregular": 2990,
      "lege": 2991,
      "ilosoph": 2992,
      "ĠMc": 2993,
      "Ġdifference": 2994,
      "Ġhyd": 2995,
      "ĠPol": 2996,
      "Ġserious": 2997,
      "Ġnation": 2998,
      "Ġsaw": 2999,
      "Ġsea": 3000,
      "lam": 3001,
      "Ġperformance": 3002,
      "pite": 3003,
      "Ġemot": 3004,
      "Ġwood": 3005,
      "ulated": 3006,
      "yond": 3007,
      "Ġsituation": 3008,
      "Ġnumbers": 3009,
      "ĠCount": 3010,
      "oor": 3011,
      "rig": 3012,
      "thern": 3013,
      "Ġprivate": 3014,
      "Ġideas": 3015,
      "Ġuses": 3016,
      "Ġarri": 3017,
      "ĠBar": 3018,
      "Ġang": 3019,
      "Ġnothing": 3020,
      "II": 3021,
      "Ġ21": 3022,
      "But": 3023,
      "Ġessential": 3024,
      "Ġâ": 3025,
      "ĠPre": 3026,
      "ĠApril": 3027,
      "vant": 3028,
      "Ġfram": 3029,
      "cember": 3030,
      "33": 3031,
      "Ġnucle": 3032,
      "ym": 3033,
      "elling": 3034,
      "Ġ2012": 3035,
      "EN": 3036,
      "IC": 3037,
      "Ġprinc": 3038,
      "ĠCong": 3039,
      "Ġsus": 3040,
      "Ġprep": 3041,
      "iers": 3042,
      "Ġhighly": 3043,
      "ĠEngland": 3044,
      "ĠReg": 3045,
      "Ġsouth": 3046,
      "ĠAc": 3047,
      "Ġfinanc": 3048,
      "ĠHer": 3049,
      "Ġaltern": 3050,
      "Ġidentify": 3051,
      "ĠEl": 3052,
      "Ġgreen": 3053,
      "Ġmultiple": 3054,
      "\",": 3055,
      "ĠOf": 3056,
      "Ġrout": 3057,
      "Ġadop": 3058,
      "Ġhundred": 3059,
      "Ġcolon": 3060,
      "ests": 3061,
      "Ġsleep": 3062,
      "Ġlost": 3063,
      "Ġtend": 3064,
      "ĠAnt": 3065,
      "ems": 3066,
      "ground": 3067,
      "Ġfru": 3068,
      "Ġacid": 3069,
      "Ġappe": 3070,
      "udd": 3071,
      "ĠOther": 3072,
      "Ġeasy": 3073,
      "ĠGl": 3074,
      "Ġpict": 3075,
      "ought": 3076,
      "wise": 3077,
      "Ġproperty": 3078,
      "ĠMost": 3079,
      "Ġstarted": 3080,
      "Ġhyp": 3081,
      "rag": 3082,
      "ĠMy": 3083,
      "Ġbenefits": 3084,
      "yp": 3085,
      "Ġden": 3086,
      "Ġcheck": 3087,
      "Ġcover": 3088,
      "Ġquant": 3089,
      "rong": 3090,
      "urg": 3091,
      "Ġharm": 3092,
      "formation": 3093,
      "Ġadditional": 3094,
      "Ġworkers": 3095,
      "Ġfollowed": 3096,
      "iency": 3097,
      "And": 3098,
      "ĠCons": 3099,
      "ĠInternational": 3100,
      "orthern": 3101,
      "hest": 3102,
      "ervation": 3103,
      "ĠInstit": 3104,
      "Ġprogress": 3105,
      "ĠFirst": 3106,
      "ription": 3107,
      "Ġtrade": 3108,
      "Ġcontinue": 3109,
      "inese": 3110,
      "Ġancient": 3111,
      "cont": 3112,
      "Ġchurch": 3113,
      "Ġtakes": 3114,
      "ara": 3115,
      "Ġelse": 3116,
      "rab": 3117,
      "med": 3118,
      "ounds": 3119,
      "Ġcapac": 3120,
      "Ġlength": 3121,
      "Ġbasis": 3122,
      "Ġformer": 3123,
      "ingu": 3124,
      "Ġdraw": 3125,
      "Ġelements": 3126,
      "Ġdecision": 3127,
      "ĠHistory": 3128,
      "ixed": 3129,
      "Ġnegative": 3130,
      "Ġmanufact": 3131,
      "Ġshare": 3132,
      "Ġ195": 3133,
      "Ġten": 3134,
      "equ": 3135,
      "Ġbase": 3136,
      "70": 3137,
      "ovember": 3138,
      "uous": 3139,
      "itte": 3140,
      "Ġ23": 3141,
      "ĠPresident": 3142,
      "Ġbirth": 3143,
      "Ġmom": 3144,
      "ancy": 3145,
      "Ġdocument": 3146,
      "Ġbacter": 3147,
      "Ġgrowing": 3148,
      "Ġencoura": 3149,
      "Ġgave": 3150,
      "pper": 3151,
      "Ġproced": 3152,
      "Ġsymb": 3153,
      "Ġjo": 3154,
      "ties": 3155,
      "Ġsecurity": 3156,
      "term": 3157,
      "Ġvict": 3158,
      "Ġeasily": 3159,
      "Ġdied": 3160,
      "omb": 3161,
      "ĠAfrica": 3162,
      "ĠNot": 3163,
      "Ġresearc": 3164,
      "ocr": 3165,
      "Ġdamage": 3166,
      "Ġadded": 3167,
      "ĠSeptember": 3168,
      "Ġclean": 3169,
      "Ġscientific": 3170,
      "omet": 3171,
      "Ġwrote": 3172,
      "Ġachieve": 3173,
      "Ġcontinued": 3174,
      "ĠAfrican": 3175,
      "wo": 3176,
      "ĠLondon": 3177,
      "Ġvirus": 3178,
      "Ġlines": 3179,
      "Ġec": 3180,
      "Ġdemand": 3181,
      "Ġgot": 3182,
      "Ġactive": 3183,
      "Ġ--": 3184,
      "IV": 3185,
      "ĠTra": 3186,
      "ĠJanuary": 3187,
      "ĠOctober": 3188,
      "iles": 3189,
      "Ġund": 3190,
      "Ġadj": 3191,
      "ashington": 3192,
      "arian": 3193,
      "Ġrates": 3194,
      "Ġfinal": 3195,
      "Ġaud": 3196,
      "Ġsum": 3197,
      "Ġremain": 3198,
      "Ġ2013": 3199,
      "ĠThus": 3200,
      "Ġfight": 3201,
      "ulate": 3202,
      "Ġtransm": 3203,
      "ĠFrom": 3204,
      "78": 3205,
      "ĠSw": 3206,
      "Ġaware": 3207,
      "ellow": 3208,
      "Ġcultural": 3209,
      "Ġ2006": 3210,
      "Ġconflic": 3211,
      "Ġmis": 3212,
      "gypt": 3213,
      "aces": 3214,
      "Ġtransport": 3215,
      "Ġonline": 3216,
      "Ġfamilies": 3217,
      "ĠSchool": 3218,
      "Ġconsequ": 3219,
      "Ġbit": 3220,
      "Ġfeatures": 3221,
      "encies": 3222,
      "Ġhealthy": 3223,
      "Ġtold": 3224,
      "ciples": 3225,
      "apter": 3226,
      "Ġbehind": 3227,
      "Ġprotein": 3228,
      "âĢĿ.": 3229,
      "Ġdeveloping": 3230,
      "Ġlegal": 3231,
      "Ġhar": 3232,
      "Ġstra": 3233,
      ".;": 3234,
      "come": 3235,
      "ĠCO": 3236,
      "Ġdetermine": 3237,
      "Ġtiss": 3238,
      "ĠJewish": 3239,
      "Ġlands": 3240,
      "36": 3241,
      "38": 3242,
      "ĠEduc": 3243,
      "iforn": 3244,
      "Ġcitiz": 3245,
      "Ġensure": 3246,
      "su": 3247,
      "Ġextra": 3248,
      "Ġcourt": 3249,
      "Ġtur": 3250,
      "Ġpage": 3251,
      "Ġcommunities": 3252,
      "oes": 3253,
      "Ġchalleng": 3254,
      "Ġbecomes": 3255,
      "ĠFeb": 3256,
      "ĠRoman": 3257,
      "Ġcred": 3258,
      "ĠGeneral": 3259,
      "rest": 3260,
      "Ġwoman": 3261,
      "orks": 3262,
      "Ġsupply": 3263,
      "ament": 3264,
      "Ġsust": 3265,
      "Ġcompanies": 3266,
      "Ġcarbon": 3267,
      "Ġ28": 3268,
      "roy": 3269,
      "ica": 3270,
      "itis": 3271,
      "Ġhands": 3272,
      "AC": 3273,
      "ech": 3274,
      "ĠLaw": 3275,
      "Ġ26": 3276,
      "Ġanti": 3277,
      "erg": 3278,
      "resp": 3279,
      "Ġcarry": 3280,
      "Ġcustom": 3281,
      "Ġoccup": 3282,
      "uments": 3283,
      "ĠScience": 3284,
      "ĠDecember": 3285,
      "oming": 3286,
      "Ġstru": 3287,
      "Ġuseful": 3288,
      "itch": 3289,
      "edom": 3290,
      "ĠRiver": 3291,
      "Ġacqu": 3292,
      "omy": 3293,
      "Ġeat": 3294,
      "Ġcontribut": 3295,
      "ellig": 3296,
      "ĠArch": 3297,
      "ĠDis": 3298,
      "Ġoffer": 3299,
      "Ġmid": 3300,
      "Ġexpect": 3301,
      "ĠCour": 3302,
      "Ġdang": 3303,
      "39": 3304,
      "Ġbooks": 3305,
      "ama": 3306,
      "Ġult": 3307,
      "Ġquickly": 3308,
      "Ġfoot": 3309,
      "Ġhous": 3310,
      "Ġwa": 3311,
      "Ġapplication": 3312,
      "Ġcompar": 3313,
      "abet": 3314,
      "Ġdepend": 3315,
      "izations": 3316,
      "ĠChinese": 3317,
      "Ġsch": 3318,
      "bit": 3319,
      "Ġsevere": 3320,
      "Ġpeace": 3321,
      "Ġremains": 3322,
      "iot": 3323,
      "Ġborn": 3324,
      "Ġsomeone": 3325,
      "Ġleading": 3326,
      "estic": 3327,
      "ils": 3328,
      "Ġsafe": 3329,
      "ĠSim": 3330,
      "Ġearlier": 3331,
      "Ġagricult": 3332,
      "inks": 3333,
      "istry": 3334,
      "ĠIm": 3335,
      "ifornia": 3336,
      "eks": 3337,
      "ĠTrans": 3338,
      "Ġcritical": 3339,
      "Ġrule": 3340,
      "ii": 3341,
      "Ġ2000": 3342,
      "Ġmental": 3343,
      "He": 3344,
      "airs": 3345,
      "imal": 3346,
      "Ġones": 3347,
      "Ġhumans": 3348,
      "Ġdark": 3349,
      "alled": 3350,
      "ĠEast": 3351,
      "Ġdead": 3352,
      "Ġinfection": 3353,
      "Ġdifferences": 3354,
      "odies": 3355,
      "Ġtree": 3356,
      "34": 3357,
      "inated": 3358,
      "Ġadvant": 3359,
      "Ġassum": 3360,
      "ming": 3361,
      "Ġrapid": 3362,
      "Ġago": 3363,
      "Äģ": 3364,
      "Ġinn": 3365,
      "Ġstatus": 3366,
      "Ġallows": 3367,
      "iques": 3368,
      "reet": 3369,
      "ĠLib": 3370,
      "ĠDepartment": 3371,
      "issions": 3372,
      "Ġrequires": 3373,
      "Ġdoesn": 3374,
      "Ġappropriate": 3375,
      "Ġsearch": 3376,
      "Ġx": 3377,
      "Ġaccur": 3378,
      "Ġlooking": 3379,
      "Ġbad": 3380,
      "itting": 3381,
      "Ġpresence": 3382,
      "Ġprotection": 3383,
      "Ġbeyond": 3384,
      "Ġimportance": 3385,
      "Ġbelief": 3386,
      "cial": 3387,
      "Ġstrateg": 3388,
      "itable": 3389,
      "ĠGreat": 3390,
      "Ġforeign": 3391,
      "hens": 3392,
      "Ġanaly": 3393,
      "uries": 3394,
      "Ġsac": 3395,
      "ields": 3396,
      "Ġteachers": 3397,
      "Ġstage": 3398,
      "Ġasked": 3399,
      "emy": 3400,
      "ruary": 3401,
      "aled": 3402,
      "Ġunique": 3403,
      "Ġdry": 3404,
      "Ġlocated": 3405,
      "exic": 3406,
      "Ġcontext": 3407,
      "Ġanything": 3408,
      "Ġprint": 3409,
      "ĠNovember": 3410,
      "ĠMon": 3411,
      "Ġperhaps": 3412,
      "ternal": 3413,
      "rates": 3414,
      "Ġprocesses": 3415,
      "Ġexact": 3416,
      "aced": 3417,
      "oted": 3418,
      "Ġanswer": 3419,
      "Ġ27": 3420,
      "Ġallowed": 3421,
      "Ġvide": 3422,
      "ĠEgypt": 3423,
      "Ġtit": 3424,
      "AL": 3425,
      "Ġvit": 3426,
      "Ġlif": 3427,
      "Ġplaces": 3428,
      "Ġfear": 3429,
      "Ġvill": 3430,
      "Ġblock": 3431,
      "Ġdaily": 3432,
      "izes": 3433,
      "ĠWashington": 3434,
      "Ġaim": 3435,
      "ĠServ": 3436,
      "Ġvacc": 3437,
      "Ġfaith": 3438,
      "back": 3439,
      "Ġpen": 3440,
      "ĠCoun": 3441,
      "oke": 3442,
      "Ġfinancial": 3443,
      "ĠCommun": 3444,
      "Ġcou": 3445,
      "IT": 3446,
      "Ġast": 3447,
      "aught": 3448,
      "HE": 3449,
      "Ġobserved": 3450,
      "Ġrespond": 3451,
      "Ġalone": 3452,
      "Ġexec": 3453,
      "iar": 3454,
      "Ġmut": 3455,
      "].": 3456,
      "Ġinside": 3457,
      "Ġhon": 3458,
      "Ġcontroll": 3459,
      "che": 3460,
      "ĠBi": 3461,
      "Ġevolution": 3462,
      "anish": 3463,
      "Ġformed": 3464,
      "Ġbott": 3465,
      "Ġsafety": 3466,
      "Ġdegree": 3467,
      "orge": 3468,
      "ĠCalifornia": 3469,
      "Ġcateg": 3470,
      "Ġefforts": 3471,
      "ĠConf": 3472,
      "enth": 3473,
      "Ġpoly": 3474,
      "Ġcalcul": 3475,
      "off": 3476,
      "more": 3477,
      "Ġplaced": 3478,
      "vest": 3479,
      "ĠUnion": 3480,
      "inate": 3481,
      "Ġteaching": 3482,
      "Ġ22": 3483,
      "Ġadapt": 3484,
      "37": 3485,
      "Ġimag": 3486,
      "ĠFrance": 3487,
      "king": 3488,
      "Ġmajority": 3489,
      "Ġrat": 3490,
      "ience": 3491,
      "omas": 3492,
      "Ġmodels": 3493,
      "ula": 3494,
      "Ġcosts": 3495,
      "asion": 3496,
      "One": 3497,
      "Ġ:": 3498,
      "Ġspeed": 3499,
      "sec": 3500,
      "Ġvirt": 3501,
      "Ġgetting": 3502,
      "ĠCity": 3503,
      "rogen": 3504,
      "Ġ2005": 3505,
      "Ġpow": 3506,
      "Ġtable": 3507,
      "semb": 3508,
      "oe": 3509,
      "Ġfast": 3510,
      "Ġfib": 3511,
      "ky": 3512,
      "Ġwhom": 3513,
      "Ġtruth": 3514,
      "Ġmole": 3515,
      "Ġidentified": 3516,
      "90": 3517,
      "ĠPat": 3518,
      "Ġmemory": 3519,
      "Ġbeaut": 3520,
      "irection": 3521,
      "Ġenj": 3522,
      "Ġorganization": 3523,
      "Ġexpected": 3524,
      "Ġmiles": 3525,
      "ĠRev": 3526,
      "ittee": 3527,
      "ĠCanada": 3528,
      "Ġthinking": 3529,
      "Ġwarm": 3530,
      "ĠGermany": 3531,
      "Ġnearly": 3532,
      "Ġtrib": 3533,
      "orders": 3534,
      "ĠSec": 3535,
      "Ġreasons": 3536,
      "Ġsolution": 3537,
      "Ġcontains": 3538,
      "Ġelectric": 3539,
      "Ġtools": 3540,
      "cks": 3541,
      "rant": 3542,
      "head": 3543,
      "ald": 3544,
      "Ġvisit": 3545,
      "Ġapplied": 3546,
      "ĠPhil": 3547,
      "ĠEven": 3548,
      "ĠHouse": 3549,
      "Ġhot": 3550,
      "ĠCongress": 3551,
      "ĠMor": 3552,
      "Ġwalk": 3553,
      "ipment": 3554,
      "45": 3555,
      "Ġveget": 3556,
      "ĠAccording": 3557,
      "Ġeverything": 3558,
      "Ġparty": 3559,
      "Ġmax": 3560,
      "ĠPal": 3561,
      "ĠThen": 3562,
      "aint": 3563,
      "que": 3564,
      "At": 3565,
      "Ġmer": 3566,
      "Ġmiddle": 3567,
      "fort": 3568,
      "entially": 3569,
      "Ġenter": 3570,
      "Ġsites": 3571,
      "bl": 3572,
      "Ġeight": 3573,
      "ĠMexic": 3574,
      "Ġfriends": 3575,
      "Ġrepe": 3576,
      "Ġappears": 3577,
      "Ġconstruction": 3578,
      "Ġgives": 3579,
      "Ġgradu": 3580,
      "Ġcenter": 3581,
      "enty": 3582,
      "Ġhistorical": 3583,
      "Ġstay": 3584,
      "ĠHere": 3585,
      "illing": 3586,
      "Ġnor": 3587,
      "phas": 3588,
      "Ġweeks": 3589,
      "Ġprin": 3590,
      "Ġbehavi": 3591,
      "Ġbeg": 3592,
      "Ġsurround": 3593,
      "Ġmember": 3594,
      "Ġcommunication": 3595,
      "ensity": 3596,
      "ĠVir": 3597,
      "atur": 3598,
      "Ġconstant": 3599,
      "Ġemp": 3600,
      "ĠAssoci": 3601,
      "room": 3602,
      "vert": 3603,
      "Ġcoast": 3604,
      "ĠSan": 3605,
      "Ġcard": 3606,
      "gn": 3607,
      "Ġroom": 3608,
      "Ġpack": 3609,
      "Ġapprox": 3610,
      "Ġnamed": 3611,
      "Ġpredict": 3612,
      "Ġreduced": 3613,
      "Ġfactor": 3614,
      "Ġneigh": 3615,
      "year": 3616,
      "Ġdate": 3617,
      "ĠUs": 3618,
      "Ġfederal": 3619,
      "Ġtrees": 3620,
      "Ġpractices": 3621,
      "Ġtypically": 3622,
      "Ġcru": 3623,
      "ĠJews": 3624,
      "ste": 3625,
      "ĠVol": 3626,
      "Ġlargest": 3627,
      "Ġeconomy": 3628,
      "Ġstrength": 3629,
      "Ġbound": 3630,
      "itect": 3631,
      "Ã¡": 3632,
      "Ġinstru": 3633,
      "Ġgold": 3634,
      "mar": 3635,
      "ĠDNA": 3636,
      "ĠDuring": 3637,
      "ĠSee": 3638,
      "Ġsoftware": 3639,
      "ĠMod": 3640,
      "ĠAmericans": 3641,
      "Ġrare": 3642,
      "ille": 3643,
      "Ġdiseases": 3644,
      "Ġseason": 3645,
      "ED": 3646,
      "aur": 3647,
      "Ġgod": 3648,
      "So": 3649,
      "ologies": 3650,
      "Ġexpress": 3651,
      "Ġresponsible": 3652,
      "Ġhelps": 3653,
      "Ġphen": 3654,
      "Ġshowed": 3655,
      "Ġleaves": 3656,
      "Ġwebs": 3657,
      "Ġsect": 3658,
      "Ġscale": 3659,
      "ding": 3660,
      "Ġrules": 3661,
      "Ġmeasures": 3662,
      "ĠBlack": 3663,
      "leb": 3664,
      "ortion": 3665,
      "ibly": 3666,
      "sect": 3667,
      "Ġrelatively": 3668,
      "ĠFebruary": 3669,
      "EC": 3670,
      "Ġcarried": 3671,
      "Ġdeal": 3672,
      "ĠEm": 3673,
      "Ġhom": 3674,
      "cean": 3675,
      "ĠFin": 3676,
      "Ġadm": 3677,
      "Ġrise": 3678,
      "Ġactions": 3679,
      "Ġ60": 3680,
      "Ġcompletely": 3681,
      "oring": 3682,
      "Ġnote": 3683,
      "rief": 3684,
      "Ġconstruct": 3685,
      "idents": 3686,
      "Ġnames": 3687,
      "Ġgene": 3688,
      "Ġexercise": 3689,
      "Ġreligion": 3690,
      "Ġ29": 3691,
      "Ġmoment": 3692,
      "ĠRo": 3693,
      "Ġleave": 3694,
      "ĠCenter": 3695,
      "Ġsumm": 3696,
      "Ġfoods": 3697,
      "ĠJames": 3698,
      "pective": 3699,
      "ett": 3700,
      "ĠWestern": 3701,
      "ĠInstitute": 3702,
      "coh": 3703,
      "Ġtransfer": 3704,
      "Ġminutes": 3705,
      "Ġcapacity": 3706,
      "Ġcam": 3707,
      "Ġreach": 3708,
      "Ġdefined": 3709,
      "ĠBra": 3710,
      "198": 3711,
      "Ġpoll": 3712,
      "atin": 3713,
      "known": 3714,
      "Ġeye": 3715,
      "Ġtherapy": 3716,
      "Ġpassed": 3717,
      "Ġeyes": 3718,
      "ĠPark": 3719,
      "Ġbelieved": 3720,
      "ĠSince": 3721,
      "time": 3722,
      "Ġsuccessful": 3723,
      "Ġriver": 3724,
      "stitution": 3725,
      "erate": 3726,
      "Ġexpression": 3727,
      "Ġ2004": 3728,
      "useum": 3729,
      "Ġdrink": 3730,
      "Ġenjoy": 3731,
      "Ġphilosoph": 3732,
      "Ġresearchers": 3733,
      "Ġcommerc": 3734,
      "Ġeffort": 3735,
      "Ġfair": 3736,
      "Ġvia": 3737,
      "Ġfemale": 3738,
      "ĠVal": 3739,
      "Ġhabit": 3740,
      "Ġexamples": 3741,
      "cles": 3742,
      "ĠHigh": 3743,
      "Ġgoal": 3744,
      "edia": 3745,
      "Ġobjects": 3746,
      "Ġsmaller": 3747,
      "Ġcoming": 3748,
      "ĠTur": 3749,
      "ogle": 3750,
      "oud": 3751,
      "Ġgame": 3752,
      "iable": 3753,
      "Ġequal": 3754,
      "Ġmig": 3755,
      "Ġtechniques": 3756,
      "ession": 3757,
      "Ġstim": 3758,
      "uff": 3759,
      "wards": 3760,
      "aign": 3761,
      "Ġversion": 3762,
      "Ġtro": 3763,
      "ĠCouncil": 3764,
      "ĠRed": 3765,
      "respond": 3766,
      "ĠSystem": 3767,
      "ĠAng": 3768,
      "ĠInc": 3769,
      "Ġdestroy": 3770,
      "Ġdirection": 3771,
      "Ġinstance": 3772,
      "cape": 3773,
      "Ġreceive": 3774,
      "ĠSociety": 3775,
      "Ġautom": 3776,
      "75": 3777,
      "ĠBecause": 3778,
      "Ġimages": 3779,
      "ĠChild": 3780,
      "ĠProt": 3781,
      "Ġfully": 3782,
      "Ġdoub": 3783,
      "Ġcommunic": 3784,
      "Ġdim": 3785,
      "Ġlocation": 3786,
      "ĠGovernment": 3787,
      "rition": 3788,
      "Ġoccurs": 3789,
      "BN": 3790,
      "ken": 3791,
      "ĠCourt": 3792,
      "ĠDevelop": 3793,
      "âĢĿ,": 3794,
      "Ġpurch": 3795,
      "Ġconv": 3796,
      "Ġbab": 3797,
      "resh": 3798,
      "Ġ2014": 3799,
      "part": 3800,
      "Ġresistance": 3801,
      "Ġdistribution": 3802,
      "ĠGreek": 3803,
      "Ġperfect": 3804,
      "ĠÃ": 3805,
      "do": 3806,
      "Ġdivid": 3807,
      "Ġprice": 3808,
      "ĠPaul": 3809,
      "Ġtesting": 3810,
      "ously": 3811,
      "Ġseparate": 3812,
      "Ġpan": 3813,
      "Ġprojects": 3814,
      "Ġauthority": 3815,
      "Ġtests": 3816,
      "Ġliterature": 3817,
      "Ġpresented": 3818,
      "Ġexposure": 3819,
      "Ġpowerful": 3820,
      "Ġmale": 3821,
      "Ġequipment": 3822,
      "odes": 3823,
      "Ġarmy": 3824,
      "Ġwon": 3825,
      "Ġlimit": 3826,
      "ĠDavid": 3827,
      "umn": 3828,
      "Ġlegis": 3829,
      "Ġgenetic": 3830,
      "Ġhosp": 3831,
      "Ġqual": 3832,
      "Ġdistance": 3833,
      "ST": 3834,
      "Ġsn": 3835,
      "ĠJapanese": 3836,
      "Ġcry": 3837,
      "Ġchanged": 3838,
      "water": 3839,
      "Ġworth": 3840,
      "Ġwrite": 3841,
      "Ġroad": 3842,
      "Ġhope": 3843,
      "Ġmentioned": 3844,
      "Ġcontrast": 3845,
      "ya": 3846,
      "Ġ2003": 3847,
      "Ġterrit": 3848,
      "Ġregions": 3849,
      "force": 3850,
      "Ġrock": 3851,
      "rupt": 3852,
      "Ġillust": 3853,
      "igen": 3854,
      "rations": 3855,
      "65": 3856,
      "Ġcode": 3857,
      "Ġkilled": 3858,
      "Ġstandards": 3859,
      "Ġcollection": 3860,
      "Ġchoice": 3861,
      "Ġtool": 3862,
      "abetes": 3863,
      "Is": 3864,
      "ĠEducation": 3865,
      "Ġbank": 3866,
      "ocks": 3867,
      "ĠKe": 3868,
      "31": 3869,
      "ĠCath": 3870,
      "32": 3871,
      "Ġscientists": 3872,
      "Ġcontract": 3873,
      "ĠSur": 3874,
      "Ġproviding": 3875,
      "with": 3876,
      "Ġbrother": 3877,
      "Ġbenefit": 3878,
      "Ġclinical": 3879,
      "Ġoverall": 3880,
      "overy": 3881,
      "Ġassign": 3882,
      "âĢ¢": 3883,
      "Ġtrying": 3884,
      "ĠJust": 3885,
      "och": 3886,
      "Ġmaintain": 3887,
      "AM": 3888,
      "Ġopin": 3889,
      "Ġfunctions": 3890,
      "Ġmiss": 3891,
      "change": 3892,
      "Ġgoes": 3893,
      "ĠRepublic": 3894,
      "Ġreference": 3895,
      "Ġinteresting": 3896,
      "Ġapplications": 3897,
      "Ġmoved": 3898,
      "Ġcities": 3899,
      "Ġcircum": 3900,
      "ĠProg": 3901,
      "Ġaffected": 3902,
      "rees": 3903,
      "Ġbattle": 3904,
      "can": 3905,
      "ĠIslam": 3906,
      "Ġsitu": 3907,
      "Ġ2015": 3908,
      "bre": 3909,
      "Ġolder": 3910,
      "Ġoffice": 3911,
      "Ġclearly": 3912,
      "ĠAlso": 3913,
      "Ġcitizens": 3914,
      "ĠHen": 3915,
      "Ġunit": 3916,
      "Ġcommonly": 3917,
      "Ġ+": 3918,
      "icip": 3919,
      "Ġvisual": 3920,
      "Ġswe": 3921,
      "Ġexperim": 3922,
      "Ġdyn": 3923,
      "Ġisol": 3924,
      "ees": 3925,
      "Ġgard": 3926,
      "Ġenh": 3927,
      "Ġrecently": 3928,
      "Ġconnect": 3929,
      "Ġexisting": 3930,
      "Ġperformed": 3931,
      "ĠMuslim": 3932,
      "cript": 3933,
      "Ġinterpret": 3934,
      "....": 3935,
      "Ġscreen": 3936,
      "related": 3937,
      "Ġemphas": 3938,
      "Ġincor": 3939,
      "itz": 3940,
      "Ġ2001": 3941,
      "Ġelement": 3942,
      "Ġign": 3943,
      "ulf": 3944,
      "Ġstrugg": 3945,
      "ĠMary": 3946,
      "ĠRel": 3947,
      "Ġincome": 3948,
      "Ġreb": 3949,
      "Ġindependent": 3950,
      "Â°": 3951,
      "iring": 3952,
      "Ġdidn": 3953,
      "lamm": 3954,
      "Ġalt": 3955,
      "Ġteacher": 3956,
      "ĠCounty": 3957,
      "Ġwrong": 3958,
      "Ġtask": 3959,
      "Ġveh": 3960,
      "Ġweak": 3961,
      "Ġfuel": 3962,
      "inf": 3963,
      "ĠInter": 3964,
      "Ġseven": 3965,
      "Ġuser": 3966,
      "PA": 3967,
      "ĠRober": 3968,
      "othes": 3969,
      "isation": 3970,
      "ĠMr": 3971,
      "itness": 3972,
      "Ġfreedom": 3973,
      "48": 3974,
      "Ġtransl": 3975,
      "Ġadults": 3976,
      "Ġimmediately": 3977,
      "Ġfile": 3978,
      "cons": 3979,
      "ĠGeorge": 3980,
      "uls": 3981,
      "Ġiron": 3982,
      "Ġpatterns": 3983,
      "Ġwife": 3984,
      "Ġsexual": 3985,
      "ĠYour": 3986,
      "Ġrecommend": 3987,
      "well": 3988,
      "Ġwat": 3989,
      "ean": 3990,
      "Ġunc": 3991,
      "ĠTheir": 3992,
      "Ġcold": 3993,
      "ĠInst": 3994,
      "porary": 3995,
      "Ġreality": 3996,
      "Ġactual": 3997,
      "Ġtele": 3998,
      "Ġstaff": 3999,
      "raw": 4000,
      "RE": 4001,
      "Ġshape": 4002,
      "Ġproperties": 4003,
      "Ġiniti": 4004,
      "Ġnoted": 4005,
      "mosp": 4006,
      "Ġagg": 4007,
      "Ġsignificantly": 4008,
      "Ġsummer": 4009,
      "Ġrich": 4010,
      "ĠNow": 4011,
      "Ġegg": 4012,
      "Ġvo": 4013,
      "Ġmonitor": 4014,
      "Ġunivers": 4015,
      "pped": 4016,
      "Ġworked": 4017,
      "Ġdat": 4018,
      "riage": 4019,
      "Ġdoctor": 4020,
      "ading": 4021,
      "uit": 4022,
      "Ġnovel": 4023,
      "Ġintellig": 4024,
      "ria": 4025,
      "Ġcreating": 4026,
      "Ġnews": 4027,
      "Ġinsp": 4028,
      "uted": 4029,
      "Ġdistinct": 4030,
      "Ġgiving": 4031,
      "ĠTechn": 4032,
      "unch": 4033,
      "ĠSam": 4034,
      "ords": 4035,
      "Ġ2002": 4036,
      "Ġdisplay": 4037,
      "ĠISBN": 4038,
      "iful": 4039,
      "cohol": 4040,
      "Ġbul": 4041,
      "ĠÎ": 4042,
      "Ex": 4043,
      "ander": 4044,
      "char": 4045,
      "Ġlived": 4046,
      "Ġexistence": 4047,
      "Ġcompl": 4048,
      "Ġmachine": 4049,
      "ĠBudd": 4050,
      "Ġopportunity": 4051,
      "ilit": 4052,
      "ĠHuman": 4053,
      "Ġcorrespond": 4054,
      "Ġprofessional": 4055,
      "Ġmob": 4056,
      "Ġdevice": 4057,
      "ped": 4058,
      "antic": 4059,
      "ographic": 4060,
      "Ġbelong": 4061,
      "Ġeffic": 4062,
      "'re": 4063,
      "Ġusers": 4064,
      "Ġsolar": 4065,
      "Ġletter": 4066,
      "ĠEv": 4067,
      "Ġcast": 4068,
      "hors": 4069,
      "Ġbran": 4070,
      "Ġdetermined": 4071,
      "Ġfigure": 4072,
      "Ġcreation": 4073,
      "Ġcommercial": 4074,
      "Ġremained": 4075,
      "ĠOur": 4076,
      "ĠTherefore": 4077,
      "Ġdro": 4078,
      "Ġoperations": 4079,
      "iance": 4080,
      "44": 4081,
      "Ġ190": 4082,
      "tical": 4083,
      "Ġarm": 4084,
      "100": 4085,
      "Ġcomponents": 4086,
      "aper": 4087,
      "ras": 4088,
      "bed": 4089,
      "Ġpet": 4090,
      "ĠRich": 4091,
      "Ġminor": 4092,
      "ingly": 4093,
      "ception": 4094,
      "Ġvideo": 4095,
      "Ġdevices": 4096,
      "Ġspect": 4097,
      "Ġincreases": 4098,
      "Ġhighest": 4099,
      "Ġreports": 4100,
      "Ġ2016": 4101,
      "eria": 4102,
      "Ġpersons": 4103,
      "Ġfriend": 4104,
      "ribute": 4105,
      "Ġinitial": 4106,
      "Ġwond": 4107,
      "roup": 4108,
      "lig": 4109,
      "enge": 4110,
      "ĠPeople": 4111,
      "unction": 4112,
      "Ġbra": 4113,
      "Ġevalu": 4114,
      "ĠLa": 4115,
      "Ġhttps": 4116,
      "ifically": 4117,
      "hemat": 4118,
      "Ġexpand": 4119,
      "Ġturned": 4120,
      "era": 4121,
      "Ġfavor": 4122,
      "Ġdrugs": 4123,
      "ĠSocial": 4124,
      "Ġforward": 4125,
      "Ġjoint": 4126,
      "Ġwanted": 4127,
      "Ġgir": 4128,
      "ĠDem": 4129,
      "olved": 4130,
      "Ġpresident": 4131,
      "Ġslight": 4132,
      "rical": 4133,
      "Ġmere": 4134,
      "ĠArmy": 4135,
      "Ġsustain": 4136,
      "Ġdiscussion": 4137,
      "Ġmag": 4138,
      "Ġintroduced": 4139,
      "These": 4140,
      "Ġheavy": 4141,
      "Ġstyle": 4142,
      "iveness": 4143,
      "With": 4144,
      "Ġeventually": 4145,
      "uses": 4146,
      "Ġacad": 4147,
      "rog": 4148,
      "aughter": 4149,
      "oration": 4150,
      "Ġeveryone": 4151,
      "Ġgrant": 4152,
      "xic": 4153,
      "ĠArab": 4154,
      "Ġmission": 4155,
      "Ġsample": 4156,
      "rick": 4157,
      "erences": 4158,
      "Ġsurvey": 4159,
      "pris": 4160,
      "nic": 4161,
      "oyal": 4162,
      "Ġmal": 4163,
      "ault": 4164,
      "Ġreferred": 4165,
      "Ġconvers": 4166,
      "nam": 4167,
      "Ġinternal": 4168,
      "ĠPublic": 4169,
      "ĠFl": 4170,
      "cular": 4171,
      "By": 4172,
      "ship": 4173,
      "Ġcharacteristics": 4174,
      "rans": 4175,
      "ĠAre": 4176,
      "Ġdiss": 4177,
      "Ġattract": 4178,
      "Ġviolence": 4179,
      "Ġchoose": 4180,
      "Ġindustrial": 4181,
      "Ġfig": 4182,
      "Ġball": 4183,
      "Un": 4184,
      "ias": 4185,
      "road": 4186,
      "ĠJud": 4187,
      "Ġwest": 4188,
      "Ar": 4189,
      "idel": 4190,
      "Ġgenes": 4191,
      "Ġstructures": 4192,
      "Ġarchitect": 4193,
      "oviet": 4194,
      "oma": 4195,
      "Ġconflict": 4196,
      "Ġnuclear": 4197,
      "Ġtrust": 4198,
      "Ġdiscovered": 4199,
      "Ġprinciples": 4200,
      "Ġrequirements": 4201,
      "Ġserve": 4202,
      "Ġinstruct": 4203,
      "Ġfeature": 4204,
      "Ġpregn": 4205,
      "Ġfrequently": 4206,
      "Ġsuggests": 4207,
      "ĠThomas": 4208,
      "iny": 4209,
      "Ġsufficient": 4210,
      "za": 4211,
      "Ġweb": 4212,
      "Ġdigital": 4213,
      "ero": 4214,
      "Ġassist": 4215,
      "ĠAssociation": 4216,
      "Ġapproximately": 4217,
      "hi": 4218,
      "Ġice": 4219,
      "wide": 4220,
      "95": 4221,
      "Ġves": 4222,
      "uration": 4223,
      "Ġmoving": 4224,
      "Ġconducted": 4225,
      "ĠTest": 4226,
      "Ġconcl": 4227,
      "Ġorganizations": 4228,
      "rence": 4229,
      "berg": 4230,
      "Ġoutput": 4231,
      "Ġcool": 4232,
      "Ġmanner": 4233,
      "Ġsecret": 4234,
      "apers": 4235,
      "Ġcounter": 4236,
      "Ġaspects": 4237,
      "Ġ1990": 4238,
      "Ġtissue": 4239,
      "Ġceleb": 4240,
      "Ġwaste": 4241,
      "Ġpun": 4242,
      "Ġvary": 4243,
      "Ġfruit": 4244,
      "Ġarr": 4245,
      "Ġdoi": 4246,
      "Ġcurrently": 4247,
      "ĠAustralia": 4248,
      "Some": 4249,
      "Ġexplain": 4250,
      "Ġspeech": 4251,
      "Ġpopulations": 4252,
      "Ġrace": 4253,
      "life": 4254,
      "that": 4255,
      "Ġsteps": 4256,
      "Ġproposed": 4257,
      "Ġcampaign": 4258,
      "Ġwealth": 4259,
      "ET": 4260,
      "Ġnumerous": 4261,
      "Ġsugar": 4262,
      "hetic": 4263,
      "Ġunits": 4264,
      "Ġfailure": 4265,
      "Ġprefer": 4266,
      "ype": 4267,
      "Ġrecords": 4268,
      "Ġalternative": 4269,
      "Ġreached": 4270,
      "Ġteach": 4271,
      "ĠDec": 4272,
      "Ġsigns": 4273,
      "OS": 4274,
      "ĠMich": 4275,
      "ocal": 4276,
      "Ġrunning": 4277,
      "ĠJer": 4278,
      "book": 4279,
      "key": 4280,
      "ĠMal": 4281,
      "Ġurban": 4282,
      "Ġpolicies": 4283,
      "Ġkept": 4284,
      "raction": 4285,
      "All": 4286,
      "Ġbreat": 4287,
      "After": 4288,
      "Ġantib": 4289,
      "Ġmeeting": 4290,
      "Figure": 4291,
      "46": 4292,
      "icial": 4293,
      "Ad": 4294,
      "rome": 4295,
      "ĠAir": 4296,
      "Ġoperation": 4297,
      "abilities": 4298,
      "Ġhousehold": 4299,
      "Ġstar": 4300,
      "Ġship": 4301,
      "Ġappoint": 4302,
      "Ġelim": 4303,
      "Ġbirds": 4304,
      "rep": 4305,
      "Ġwinter": 4306,
      "Ġ186": 4307,
      "ares": 4308,
      "Ġbalance": 4309,
      "Ġcro": 4310,
      "99": 4311,
      "Ġgeneration": 4312,
      "ago": 4313,
      "rehens": 4314,
      "crib": 4315,
      "ocol": 4316,
      "ij": 4317,
      "Ġabsor": 4318,
      "cop": 4319,
      "ĠBer": 4320,
      "Ġpray": 4321,
      "Ġrot": 4322,
      "Ġmort": 4323,
      "Ġtreated": 4324,
      "Ġbodies": 4325,
      "47": 4326,
      "Ġtou": 4327,
      "ributed": 4328,
      "alle": 4329,
      "ht": 4330,
      "which": 4331,
      "cast": 4332,
      "osy": 4333,
      "Ġunderst": 4334,
      "Ġnative": 4335,
      "Ġfamous": 4336,
      "Ġgain": 4337,
      "Ġunf": 4338,
      "ĠJose": 4339,
      "ĠPort": 4340,
      "Ġresulting": 4341,
      "Ġconnected": 4342,
      "Ġcand": 4343,
      "ĠSpanish": 4344,
      "Ġlearned": 4345,
      "roph": 4346,
      "Ġbacteria": 4347,
      "ss": 4348,
      "Ġextent": 4349,
      "ĠFurther": 4350,
      "Ġatmosp": 4351,
      "Ġwidely": 4352,
      "Ġserved": 4353,
      "yt": 4354,
      "bi": 4355,
      "Ġapply": 4356,
      "Ġsem": 4357,
      "ĠSoviet": 4358,
      "Ġdecided": 4359,
      "Ġ35": 4360,
      "la": 4361,
      "Ġheard": 4362,
      "Ġplanning": 4363,
      "Ġmoral": 4364,
      "yd": 4365,
      "Ġsort": 4366,
      "Ġsaying": 4367,
      "AP": 4368,
      "Ġphase": 4369,
      "Ġobvious": 4370,
      "Ġbillion": 4371,
      "ĠSpec": 4372,
      "Ġtrack": 4373,
      "ĠLet": 4374,
      "Ġremember": 4375,
      "Ġ80": 4376,
      "ĠWhite": 4377,
      "ĠMat": 4378,
      "ĠHol": 4379,
      "ĠAv": 4380,
      "Ġcombination": 4381,
      "Ġconnection": 4382,
      "Ġprepar": 4383,
      "house": 4384,
      "ĠWater": 4385,
      "Ġdetails": 4386,
      "Ġfresh": 4387,
      "ĠAD": 4388,
      "Ġexperiences": 4389,
      "ressive": 4390,
      "Ġvolume": 4391,
      "Ġboard": 4392,
      "Ġspiritual": 4393,
      "plications": 4394,
      "onic": 4395,
      "ĠGreen": 4396,
      "Ġdut": 4397,
      "Ġregarding": 4398,
      "Ġwebsite": 4399,
      "US": 4400,
      "ĠUN": 4401,
      "ux": 4402,
      "Ġpiece": 4403,
      "olute": 4404,
      "While": 4405,
      "ĠBible": 4406,
      "Ġapparent": 4407,
      "Ġeast": 4408,
      "Ġ1999": 4409,
      "Ġforced": 4410,
      "Ġconfirm": 4411,
      "Ġobtained": 4412,
      "Ġestimated": 4413,
      "Ġreprodu": 4414,
      "otes": 4415,
      "ĠChe": 4416,
      "gment": 4417,
      "Ġconscious": 4418,
      "ĠOff": 4419,
      "ieties": 4420,
      "Be": 4421,
      "ĠUnder": 4422,
      "Ġpolice": 4423,
      "uild": 4424,
      "band": 4425,
      "eding": 4426,
      "Ġexcess": 4427,
      "Ġsynt": 4428,
      "Ġprison": 4429,
      "Ġmeant": 4430,
      "ague": 4431,
      "Ġfrequency": 4432,
      "Ġcycle": 4433,
      "Ġupper": 4434,
      "Ġadvantage": 4435,
      "Ġfilm": 4436,
      "ĠBel": 4437,
      "ĠCur": 4438,
      "ĠSen": 4439,
      "Ġinstitutions": 4440,
      "ĠAut": 4441,
      "ĠDevelopment": 4442,
      "Ġparticipants": 4443,
      "Ġstrategies": 4444,
      "Ġchief": 4445,
      "ĠCentral": 4446,
      "vision": 4447,
      "bert": 4448,
      "Ġfinally": 4449,
      "Ġ2017": 4450,
      "iant": 4451,
      "Ġconclud": 4452,
      "Ġsin": 4453,
      "Ġstories": 4454,
      "Ġlatter": 4455,
      "Ġpicture": 4456,
      "ĠDi": 4457,
      "Ġremoved": 4458,
      "Ġweather": 4459,
      "Ġauthors": 4460,
      "CC": 4461,
      "Ġfert": 4462,
      "Ġextremely": 4463,
      "bal": 4464,
      "Go": 4465,
      "Ġsubsequ": 4466,
      "ĠEach": 4467,
      "Ġtub": 4468,
      "Ġeating": 4469,
      "Ġfort": 4470,
      "Ġmostly": 4471,
      "Ġmouth": 4472,
      "55": 4473,
      "ĠFre": 4474,
      "Ġpreviously": 4475,
      "ĠSer": 4476,
      "wood": 4477,
      "ĠMac": 4478,
      "ĠMark": 4479,
      "Ġconsumption": 4480,
      "Ġexhib": 4481,
      "Ġrelationships": 4482,
      "field": 4483,
      "Ġpal": 4484,
      "Ġthousands": 4485,
      "orage": 4486,
      "Ġrevolution": 4487,
      "istan": 4488,
      "lies": 4489,
      "Pro": 4490,
      "ishes": 4491,
      "Ġdecisions": 4492,
      "Ġsignal": 4493,
      "uing": 4494,
      "Ġinvolve": 4495,
      "Ġeducational": 4496,
      "Ġsetting": 4497,
      "ĠSal": 4498,
      "ĠDon": 4499,
      "inant": 4500,
      "aste": 4501,
      "Ġinterests": 4502,
      "Ġrob": 4503,
      "ĠSecond": 4504,
      "Ġfelt": 4505,
      "rum": 4506,
      "Ġbox": 4507,
      "Ġcovered": 4508,
      "Ġvessel": 4509,
      "Ġinh": 4510,
      "Ġdetect": 4511,
      "win": 4512,
      "Ġassessment": 4513,
      "Ġnotes": 4514,
      "ĠâĢ¦": 4515,
      "Ġhair": 4516,
      "astern": 4517,
      "ĠHenry": 4518,
      "oday": 4519,
      "Ġsouthern": 4520,
      "Ġefficient": 4521,
      "Ġliqu": 4522,
      "col": 4523,
      "mat": 4524,
      "ĠLou": 4525,
      "ĠMount": 4526,
      "49": 4527,
      "oper": 4528,
      "orial": 4529,
      "Ġadjust": 4530,
      "ĠInf": 4531,
      "ĠBritain": 4532,
      "erved": 4533,
      "76": 4534,
      "oting": 4535,
      "Ġimmune": 4536,
      "Ġstream": 4537,
      "cipl": 4538,
      "Ġblue": 4539,
      "Ġphenomen": 4540,
      "Ġmuscle": 4541,
      "Ġreturned": 4542,
      "eal": 4543,
      "ager": 4544,
      "Ġchance": 4545,
      "Ġbed": 4546,
      "Ġplans": 4547,
      "Ġexperiment": 4548,
      "Ġmic": 4549,
      "ellect": 4550,
      "Ġ...": 4551,
      "aped": 4552,
      "ida": 4553,
      "rian": 4554,
      "ĠFore": 4555,
      "Ġoccurred": 4556,
      "ructure": 4557,
      "ki": 4558,
      "Ġvision": 4559,
      "Ġtroops": 4560,
      "Ġinput": 4561,
      "Ġdecades": 4562,
      "ĠBC": 4563,
      "Ġbecoming": 4564,
      "Ġtim": 4565,
      "Ġsav": 4566,
      "Ġnorthern": 4567,
      "ĠOver": 4568,
      "liam": 4569,
      "Ġsupported": 4570,
      "Ġsatis": 4571,
      "Ġcogn": 4572,
      "Ġimpl": 4573,
      "ching": 4574,
      "ifying": 4575,
      "ĠRussian": 4576,
      "Ġfine": 4577,
      "ĠIts": 4578,
      "Ġspring": 4579,
      "osen": 4580,
      "Ġformation": 4581,
      "Ġpric": 4582,
      "Ġradio": 4583,
      "Ġemerg": 4584,
      "RO": 4585,
      "Ġyourself": 4586,
      "nes": 4587,
      "PS": 4588,
      "Ġrelevant": 4589,
      "ĠOld": 4590,
      "Ġthick": 4591,
      "Ġstation": 4592,
      "Ġdescribe": 4593,
      "Ġseed": 4594,
      "Ġstrate": 4595,
      "des": 4596,
      "Ġstatement": 4597,
      "ĠRobert": 4598,
      "ygen": 4599,
      "Ġstrategy": 4600,
      "edic": 4601,
      "what": 4602,
      "ĠInternet": 4603,
      "rich": 4604,
      "Ġgun": 4605,
      "Ġconver": 4606,
      "Ġcharge": 4607,
      "Ġprinciple": 4608,
      "ÃŃ": 4609,
      "ĠAN": 4610,
      "aded": 4611,
      "ĠCatholic": 4612,
      "Ġstated": 4613,
      "Ġisn": 4614,
      "oo": 4615,
      "Ġfif": 4616,
      "Ġbreast": 4617,
      "icians": 4618,
      "Ġlat": 4619,
      "Ġpick": 4620,
      "Ġutil": 4621,
      "Ġtransform": 4622,
      "Ġlayer": 4623,
      "Ġdie": 4624,
      "asks": 4625,
      "Ġisland": 4626,
      "Ġanx": 4627,
      "Ġpros": 4628,
      "Ġreaction": 4629,
      "Ġrelease": 4630,
      "Ġnations": 4631,
      "Ġoffered": 4632,
      "racy": 4633,
      "olars": 4634,
      "iverse": 4635,
      "Ġlargely": 4636,
      "amental": 4637,
      "ĠAsia": 4638,
      "Ġmetal": 4639,
      "Ġtrou": 4640,
      "AD": 4641,
      "Ġgoals": 4642,
      "Ġroot": 4643,
      "ios": 4644,
      "ĠNet": 4645,
      "itors": 4646,
      "eters": 4647,
      "ĠCharles": 4648,
      "Ġcra": 4649,
      "Ġalcohol": 4650,
      "Ġanyone": 4651,
      "Ġmist": 4652,
      "Ġ1998": 4653,
      "Ġdefic": 4654,
      "Ġsuggested": 4655,
      "Ġround": 4656,
      "Ġdram": 4657,
      "Ġpurposes": 4658,
      "ĠSmith": 4659,
      "Ã¼": 4660,
      "77": 4661,
      "Ġopportunities": 4662,
      "Ġidentity": 4663,
      "Ġhear": 4664,
      "Ġvictim": 4665,
      "ĠCommission": 4666,
      "ĠSub": 4667,
      "zy": 4668,
      "ĠUK": 4669,
      "Ġmilk": 4670,
      "Se": 4671,
      "ossible": 4672,
      "Ġbuy": 4673,
      "Ġhuge": 4674,
      "Ġreform": 4675,
      "aker": 4676,
      "Ġdiabetes": 4677,
      "liament": 4678,
      "Ġintended": 4679,
      "urance": 4680,
      "Ġrail": 4681,
      "Ġfields": 4682,
      "Ġmainly": 4683,
      "ocratic": 4684,
      "Ġcere": 4685,
      "Ġtrend": 4686,
      "ĠBas": 4687,
      "Ġnutri": 4688,
      "Ġhappen": 4689,
      "Ġsubstant": 4690,
      "anging": 4691,
      "ules": 4692,
      "Ġclaims": 4693,
      "Ġ*": 4694,
      "ĠOrgan": 4695,
      "arrow": 4696,
      "Sh": 4697,
      "Ġprepared": 4698,
      "Ġfollows": 4699,
      "ION": 4700,
      "ĠMexico": 4701,
      "ollow": 4702,
      "ĠâĨ": 4703,
      "Ġimmig": 4704,
      "ĠSuch": 4705,
      "Ġdefinition": 4706,
      "Ġknew": 4707,
      "ishing": 4708,
      "Ġmo": 4709,
      "Ġrecorded": 4710,
      "Ġincorpor": 4711,
      "ams": 4712,
      "isher": 4713,
      "gery": 4714,
      "EM": 4715,
      "Ġpossess": 4716,
      "Ġbottom": 4717,
      "ĠMart": 4718,
      "Ġweap": 4719,
      "otic": 4720,
      "Ġmessage": 4721,
      "atically": 4722,
      "ĠWork": 4723,
      "Ġraised": 4724,
      "ĠGra": 4725,
      "ixt": 4726,
      "Ġlic": 4727,
      "Ġgrand": 4728,
      "Ġsolid": 4729,
      "lar": 4730,
      "Ġinsect": 4731,
      "Ġillness": 4732,
      "ĠProf": 4733,
      "Ġclasses": 4734,
      "Ġ188": 4735,
      "Ġ70": 4736,
      "osite": 4737,
      "Ġcook": 4738,
      "ĠMet": 4739,
      "ka": 4740,
      "ĠIsland": 4741,
      "Ġcore": 4742,
      "Ġvalid": 4743,
      "Ġsubjects": 4744,
      "ĠPlan": 4745,
      "Ġmap": 4746,
      "Ġrecommended": 4747,
      "Ġcris": 4748,
      "Ġcertainly": 4749,
      "Ġcontem": 4750,
      "Ġscen": 4751,
      "Ġdisorder": 4752,
      "ĠVirgin": 4753,
      "Ġoffers": 4754,
      "Ġappeared": 4755,
      "rust": 4756,
      "works": 4757,
      "Ġbackground": 4758,
      "ĠDay": 4759,
      "Ġbuildings": 4760,
      "ĠWeb": 4761,
      "ounced": 4762,
      "Ġsyn": 4763,
      "Ġguide": 4764,
      "nel": 4765,
      "Ġ90": 4766,
      "Ġwin": 4767,
      "Ġindicate": 4768,
      "Ġleads": 4769,
      "Ġbrief": 4770,
      "Ġprocessing": 4771,
      "Ġchronic": 4772,
      "ĠPers": 4773,
      "ĠKore": 4774,
      "Ġcircumst": 4775,
      "adian": 4776,
      "mark": 4777,
      "Ġcopy": 4778,
      "Ġtrial": 4779,
      "ĠSun": 4780,
      "Ġprimarily": 4781,
      "Ġchallenges": 4782,
      "Ġannual": 4783,
      "Ġbatter": 4784,
      "ĠWil": 4785,
      "ĠBen": 4786,
      "New": 4787,
      "ĠCompany": 4788,
      "Ġdrive": 4789,
      "ĠJoseph": 4790,
      "Ġkids": 4791,
      "Ġdistingu": 4792,
      "Ġexternal": 4793,
      "ael": 4794,
      "Ġplanet": 4795,
      "Ġcompleted": 4796,
      "Ġwatch": 4797,
      "Ġcenturies": 4798,
      "Ġmel": 4799,
      "ĠConstitution": 4800,
      "ĠMiss": 4801,
      "ĠEnvironment": 4802,
      "Ġdivided": 4803,
      "ĠIr": 4804,
      "Ġsymbol": 4805,
      "ensus": 4806,
      "care": 4807,
      "Ġitems": 4808,
      "Ġdiscussed": 4809,
      "ĠTwo": 4810,
      "Ġglass": 4811,
      "Ġdynam": 4812,
      "Ġtour": 4813,
      "Ġargument": 4814,
      "gl": 4815,
      "ien": 4816,
      "van": 4817,
      "Ġnav": 4818,
      "Ġdu": 4819,
      "Ġexplan": 4820,
      "Ġmorning": 4821,
      "ĠOx": 4822,
      "Ġbond": 4823,
      "Ġgoods": 4824,
      "Ġ<": 4825,
      "ĠRussia": 4826,
      "ĠWhy": 4827,
      "tion": 4828,
      "ĠRec": 4829,
      "Ġremove": 4830,
      "Ġchallenge": 4831,
      "Ġreject": 4832,
      "Ġmedicine": 4833,
      "Ġplat": 4834,
      "kin": 4835,
      "Ġparties": 4836,
      "Ġowners": 4837,
      "Ġready": 4838,
      "Ġtried": 4839,
      "ĠPsych": 4840,
      "Ġdomestic": 4841,
      "Ġindeed": 4842,
      "ded": 4843,
      "Ġcombined": 4844,
      "iling": 4845,
      "Ġspent": 4846,
      "ĠEmp": 4847,
      "alse": 4848,
      "Ġbone": 4849,
      "atever": 4850,
      "Ġadvanced": 4851,
      "ested": 4852,
      "Ġreleased": 4853,
      "Ġflood": 4854,
      "ĠKh": 4855,
      "Ġexperienced": 4856,
      "Ġpul": 4857,
      "ĠLear": 4858,
      "Ġ#": 4859,
      "rating": 4860,
      "Ph": 4861,
      "ĠNav": 4862,
      "ĠDiv": 4863,
      "ĠOb": 4864,
      "Ġdisorders": 4865,
      "ĠHIV": 4866,
      "Ġstone": 4867,
      "Ġkill": 4868,
      "mal": 4869,
      "Ġfeeling": 4870,
      "Ġreduction": 4871,
      "osa": 4872,
      "Ġmotiv": 4873,
      "Ġmaster": 4874,
      "ĠCollege": 4875,
      "Ġoptions": 4876,
      "Ġexactly": 4877,
      "Ġsamples": 4878,
      "ĠPri": 4879,
      "Ġsoldiers": 4880,
      "rete": 4881,
      "ĠBoth": 4882,
      "98": 4883,
      "Ġexcell": 4884,
      "ĠLife": 4885,
      "rier": 4886,
      "Ġinnov": 4887,
      "Ġreplace": 4888,
      "Ġresource": 4889,
      "ĠTex": 4890,
      "Ġstarting": 4891,
      "Ġsand": 4892,
      "ns": 4893,
      "Ġpret": 4894,
      "Ġleader": 4895,
      "Ġjour": 4896,
      "Ġvolunt": 4897,
      "Ġpaid": 4898,
      "ĠPM": 4899,
      "ĠQue": 4900,
      "Ġdespite": 4901,
      "ĠTHE": 4902,
      "ĠBur": 4903,
      "Ġaid": 4904,
      "ndrome": 4905,
      "ference": 4906,
      "Ġhelped": 4907,
      "ĠAcad": 4908,
      "ĠLatin": 4909,
      "asure": 4910,
      "Ġseek": 4911,
      "Ġrecognized": 4912,
      "Ġchanging": 4913,
      "ciences": 4914,
      "Ġmulti": 4915,
      "05": 4916,
      "Ġburn": 4917,
      "Ġotherwise": 4918,
      "oral": 4919,
      "Ġsong": 4920,
      "ey": 4921,
      "Ġwestern": 4922,
      "ĠMil": 4923,
      "ĠService": 4924,
      "ĠCivil": 4925,
      "Ġaccepted": 4926,
      "Ġquar": 4927,
      "Ġmaximum": 4928,
      "Ġstore": 4929,
      "Ġideal": 4930,
      "inet": 4931,
      "ceived": 4932,
      "42": 4933,
      "Ġfindings": 4934,
      "gra": 4935,
      "CR": 4936,
      "Ġ1997": 4937,
      "vis": 4938,
      "Ġinvolves": 4939,
      "EL": 4940,
      "Ġbeautiful": 4941,
      "Ġconstitution": 4942,
      "rine": 4943,
      "Ġpure": 4944,
      "Ġmur": 4945,
      "Ġdepending": 4946,
      "ĠFranc": 4947,
      "rem": 4948,
      "Ġdepression": 4949,
      "etry": 4950,
      "Ġassemb": 4951,
      "ĠUse": 4952,
      "Ġneut": 4953,
      "standing": 4954,
      "Ġgreatest": 4955,
      "Ġpil": 4956,
      "Ġhop": 4957,
      "Ġcomment": 4958,
      "Ġgraph": 4959,
      "Ġgrass": 4960,
      "Ġlanguages": 4961,
      "Ġgender": 4962,
      "ville": 4963,
      "ĠPhys": 4964,
      "encing": 4965,
      "iox": 4966,
      "Ġ31": 4967,
      "body": 4968,
      "ĠBay": 4969,
      "Ġorganic": 4970,
      "Ġtechnologies": 4971,
      "ĠOF": 4972,
      "Ġfle": 4973,
      "Ġalg": 4974,
      "ologists": 4975,
      "Ġcontrolled": 4976,
      "comes": 4977,
      "conomic": 4978,
      "zz": 4979,
      "west": 4980,
      "reed": 4981,
      "Con": 4982,
      "Ġtechnique": 4983,
      "Ġopinion": 4984,
      "Ġconcerns": 4985,
      "Ġperspective": 4986,
      "Ġmarriage": 4987,
      "Ġpractical": 4988,
      "Ġrand": 4989,
      "alian": 4990,
      "Ġabsolute": 4991,
      "Ġimmun": 4992,
      "Ġintellect": 4993,
      "Ġspl": 4994,
      "Ġarticles": 4995,
      "Ġinterview": 4996,
      "ĠAlex": 4997,
      "Ġadvance": 4998,
      "CO": 4999,
      "Ġdisapp": 5000,
      "Ġmathemat": 5001,
      "Ġfundamental": 5002,
      "acific": 5003,
      "lements": 5004,
      "66": 5005,
      "Ġimproved": 5006,
      "79": 5007,
      "Ġjustice": 5008,
      "They": 5009,
      "Ġexpressed": 5010,
      "Ġfirm": 5011,
      "Ġcredit": 5012,
      "Ġtechnical": 5013,
      "ĠMass": 5014,
      "ĠMedic": 5015,
      "urt": 5016,
      "Ġperman": 5017,
      "Ġoxygen": 5018,
      "Ġdegrees": 5019,
      "ĠBr": 5020,
      "inding": 5021,
      "ĠAtl": 5022,
      "Ġmeasured": 5023,
      "Ġunderstood": 5024,
      "Ġcritic": 5025,
      "Ġparam": 5026,
      "Ġresponsibility": 5027,
      "Ġyouth": 5028,
      "Ġrandom": 5029,
      "ortunately": 5030,
      "Ġportion": 5031,
      "Ġacademic": 5032,
      "Ġeasier": 5033,
      "Ġsquare": 5034,
      "Ġplayed": 5035,
      "ĠDef": 5036,
      "Ġrecon": 5037,
      "Ġstorage": 5038,
      "Ġrural": 5039,
      "oned": 5040,
      "ician": 5041,
      "athy": 5042,
      "Ġsubm": 5043,
      "Ġchann": 5044,
      "Ġresist": 5045,
      "43": 5046,
      "Ġvillage": 5047,
      "Ġinflamm": 5048,
      "ework": 5049,
      "iah": 5050,
      "ircraft": 5051,
      "arsh": 5052,
      "Ġcollabor": 5053,
      "ball": 5054,
      "Ġmedium": 5055,
      "Ġindu": 5056,
      "ĠDist": 5057,
      "rants": 5058,
      "Ġinvent": 5059,
      "Ġvast": 5060,
      "Ġcoal": 5061,
      "ĠProgram": 5062,
      "41": 5063,
      "Ġdouble": 5064,
      "Ġmotion": 5065,
      "Ġtum": 5066,
      "Ġ1996": 5067,
      "Ġadministration": 5068,
      "ormal": 5069,
      "Ġfell": 5070,
      "ĠNor": 5071,
      "Ġexcl": 5072,
      "Ġrefers": 5073,
      "Ġhyper": 5074,
      "ĠMont": 5075,
      "Ġvent": 5076,
      "ĠOp": 5077,
      "point": 5078,
      "usal": 5079,
      "ĠSou": 5080,
      "Ġconcentration": 5081,
      "58": 5082,
      "Ġspecifically": 5083,
      "Ġhappened": 5084,
      "Ġhour": 5085,
      "ulating": 5086,
      "Ġpromote": 5087,
      "Ġ1980": 5088,
      "ologist": 5089,
      "Ġexposed": 5090,
      "vation": 5091,
      "Ġkid": 5092,
      "Ġmanufacture": 5093,
      "Ġentirely": 5094,
      "Ġhospital": 5095,
      "ĠFederal": 5096,
      "Ġconcerned": 5097,
      "Ġconsequences": 5098,
      "Ġradiation": 5099,
      "Ġimper": 5100,
      "Ġheight": 5101,
      "Ġbaby": 5102,
      "TS": 5103,
      "Ġshared": 5104,
      "ĠPeter": 5105,
      "Ġfinding": 5106,
      "ĠBook": 5107,
      "Ġdoubt": 5108,
      "acters": 5109,
      "Ã³": 5110,
      "spec": 5111,
      "utive": 5112,
      "cest": 5113,
      "omic": 5114,
      "Ġenemy": 5115,
      "ĠOnce": 5116,
      "Americ": 5117,
      "However": 5118,
      "ĠTem": 5119,
      "Ġphilosophy": 5120,
      "ĠFound": 5121,
      "ĠAnother": 5122,
      "Ġoption": 5123,
      "IG": 5124,
      "Ġcausing": 5125,
      "Ġexchange": 5126,
      "ĠDel": 5127,
      "Ġ^": 5128,
      "Ġviews": 5129,
      "Ġfarmers": 5130,
      "olf": 5131,
      "ompl": 5132,
      "Ġoperating": 5133,
      "ĠBro": 5134,
      "ĠAp": 5135,
      "Ġdogs": 5136,
      "Ġkm": 5137,
      "Ġselected": 5138,
      "anges": 5139,
      "Ġagricultural": 5140,
      "Ġemotional": 5141,
      "iced": 5142,
      "Ġadopted": 5143,
      "ĠCommittee": 5144,
      "Ġkinds": 5145,
      "Ġsector": 5146,
      "Ġgar": 5147,
      "ING": 5148,
      "Cl": 5149,
      "Ġdatab": 5150,
      "Ġdiam": 5151,
      "Ġamb": 5152,
      "ĠCamb": 5153,
      "Ġhus": 5154,
      "DA": 5155,
      "Ġjournal": 5156,
      "ĠIN": 5157,
      "arp": 5158,
      "rows": 5159,
      "anged": 5160,
      "Ġproteins": 5161,
      "Gen": 5162,
      "Ġcontaining": 5163,
      "Ġdial": 5164,
      "ĠLouis": 5165,
      "comp": 5166,
      "Ġ45": 5167,
      "Ġhorse": 5168,
      "Ġselection": 5169,
      ".|": 5170,
      "Ġbegins": 5171,
      "Ġeffectively": 5172,
      "Ġsave": 5173,
      "Ġprocedure": 5174,
      "no": 5175,
      "Ġtaught": 5176,
      "Ġarms": 5177,
      "Ġgets": 5178,
      "From": 5179,
      "Ġsequence": 5180,
      "Ġstock": 5181,
      "Ġgarden": 5182,
      "ato": 5183,
      "Ġcollected": 5184,
      "Ġtrig": 5185,
      "place": 5186,
      "Ġfit": 5187,
      "verty": 5188,
      "Ġinstrument": 5189,
      "Ġpowers": 5190,
      "Ġbud": 5191,
      "ocracy": 5192,
      "inger": 5193,
      "Ġtitle": 5194,
      "olid": 5195,
      "Ġpoverty": 5196,
      "71": 5197,
      "Ġformal": 5198,
      "ears": 5199,
      "Ġcomponent": 5200,
      "ĠMa": 5201,
      "Ġcomprehens": 5202,
      "Ġfailed": 5203,
      "Ġvoice": 5204,
      "Ġdoll": 5205,
      "Ġbiological": 5206,
      "Ġband": 5207,
      "resents": 5208,
      "Ġchapter": 5209,
      "Ġdiagnosis": 5210,
      "cription": 5211,
      "ĠEvery": 5212,
      "Ġcolumn": 5213,
      "Ġmotor": 5214,
      "ĠST": 5215,
      "Ġproperly": 5216,
      "iated": 5217,
      "uh": 5218,
      "Ġmetab": 5219,
      "No": 5220,
      "Ġpartners": 5221,
      "Ġamounts": 5222,
      "Ġcoord": 5223,
      "Ġ2018": 5224,
      "Ġvul": 5225,
      "Ġkn": 5226,
      "Ġagreement": 5227,
      "Ġreducing": 5228,
      "ini": 5229,
      "Ġtypical": 5230,
      "ĠSom": 5231,
      "Ġattacks": 5232,
      "htm": 5233,
      "68": 5234,
      "enses": 5235,
      "Ġnotice": 5236,
      "Ġ1995": 5237,
      "iat": 5238,
      "Ġstraight": 5239,
      "MS": 5240,
      "hist": 5241,
      "Ġletters": 5242,
      "Ġhomes": 5243,
      "Ġinterested": 5244,
      "Ġtwenty": 5245,
      "war": 5246,
      "Ġrain": 5247,
      "?âĢĿ": 5248,
      "Ġscholars": 5249,
      "Although": 5250,
      "Ġcollege": 5251,
      "Ġrepresented": 5252,
      "ĠDan": 5253,
      "Ġwaters": 5254,
      "abil": 5255,
      "Ġclos": 5256,
      "ĠHam": 5257,
      "esis": 5258,
      "Ġdesire": 5259,
      "OT": 5260,
      "Ġprices": 5261,
      "Ġslightly": 5262,
      "Ġlit": 5263,
      "Ġappearance": 5264,
      "Ġcomfort": 5265,
      "Ġcontinues": 5266,
      "Ġaccompl": 5267,
      "IL": 5268,
      "ĠProject": 5269,
      "Ġsuc": 5270,
      "umin": 5271,
      "ĠSte": 5272,
      "reci": 5273,
      "Ġcircumstances": 5274,
      "Ġconsult": 5275,
      "ĠAnn": 5276,
      "Ġnarr": 5277,
      "Ġplatform": 5278,
      "Ġimpossible": 5279,
      "Ġsan": 5280,
      "Ġconvent": 5281,
      "Ġtopic": 5282,
      "Ġsecondary": 5283,
      "Ġcharacters": 5284,
      "burg": 5285,
      "Ġinfections": 5286,
      "Ġperiods": 5287,
      "othe": 5288,
      "ĠRights": 5289,
      "Ġvitamin": 5290,
      "Ġcontinuous": 5291,
      "Ġacts": 5292,
      "Ġdepth": 5293,
      "Ġtemperatures": 5294,
      "Ġmix": 5295,
      "igenous": 5296,
      "Ġrelation": 5297,
      "Ġopened": 5298,
      "ih": 5299,
      "Ġseeds": 5300,
      "That": 5301,
      "Ġofficials": 5302,
      "Ġderived": 5303,
      "ĠHel": 5304,
      "usive": 5305,
      "âĢĻ.": 5306,
      "Ġneighbor": 5307,
      "Ġfacts": 5308,
      "Ġextract": 5309,
      "Ġleadership": 5310,
      "Ġarrived": 5311,
      "Ġmarried": 5312,
      "Ġlik": 5313,
      "Ġax": 5314,
      "Ġfrag": 5315,
      "SA": 5316,
      "ĠTreat": 5317,
      "BC": 5318,
      "asp": 5319,
      "inity": 5320,
      "Ġallowing": 5321,
      "Ġclosely": 5322,
      "Ġefficiency": 5323,
      "Ġrisks": 5324,
      "Ġlov": 5325,
      "ĠSea": 5326,
      "roid": 5327,
      "Ġprofession": 5328,
      "Ġfacilities": 5329,
      "Ã¶": 5330,
      "ĠRome": 5331,
      "going": 5332,
      "Ġadequ": 5333,
      "Ġdepends": 5334,
      "uable": 5335,
      "Ġrepresents": 5336,
      "ĠTexas": 5337,
      "ĠSupp": 5338,
      "tic": 5339,
      "osm": 5340,
      "othing": 5341,
      "Ġemissions": 5342,
      "ĠRem": 5343,
      "Ġapproaches": 5344,
      "iology": 5345,
      "Ġhappens": 5346,
      "ĠMiddle": 5347,
      "Ġmovements": 5348,
      "Ġexplore": 5349,
      "Ġexplained": 5350,
      "Ġwonder": 5351,
      "organ": 5352,
      "Ġspot": 5353,
      "ua": 5354,
      "Ġinjury": 5355,
      "ĠLake": 5356,
      "Ġlinked": 5357,
      "Ġnutrition": 5358,
      "nergy": 5359,
      "Ġmeat": 5360,
      "Ġaccomp": 5361,
      "ado": 5362,
      "ails": 5363,
      "Ġconcepts": 5364,
      "Ġdetailed": 5365,
      "Ġtrad": 5366,
      "ĠReview": 5367,
      "akers": 5368,
      "Ġstudied": 5369,
      "Ġpieces": 5370,
      "Ġincreasingly": 5371,
      "osph": 5372,
      "unk": 5373,
      "ĠIndians": 5374,
      "alysis": 5375,
      "Ġunless": 5376,
      "Ġ1970": 5377,
      "Ġdefe": 5378,
      "Ġpossibility": 5379,
      "iled": 5380,
      "Ġclim": 5381,
      "Ġcareer": 5382,
      "Ġhouses": 5383,
      "ĠFigure": 5384,
      "Ġinstall": 5385,
      "ĠWell": 5386,
      "Re": 5387,
      "Ġshowing": 5388,
      "Ġinvestment": 5389,
      "Ġrepeated": 5390,
      "ĠEth": 5391,
      "Ġrestrict": 5392,
      "Ġnit": 5393,
      "osystem": 5394,
      "inations": 5395,
      "ĠStreet": 5396,
      "ĠPub": 5397,
      "Ġmyth": 5398,
      "Ġdaughter": 5399,
      "Ġtoxic": 5400,
      "ipped": 5401,
      "Ġessay": 5402,
      "Ġwave": 5403,
      "Ġhorm": 5404,
      "Ġsides": 5405,
      "Ġthousand": 5406,
      "Ġrein": 5407,
      "oster": 5408,
      "iform": 5409,
      "ĠMuseum": 5410,
      "Ġmanif": 5411,
      "%)": 5412,
      "Ġaircraft": 5413,
      "ĠMem": 5414,
      "Ġconsists": 5415,
      "Ġdangerous": 5416,
      "Ġminimum": 5417,
      "Ġschem": 5418,
      "âĢĻ,": 5419,
      "Ġcrim": 5420,
      "ĠHoly": 5421,
      "ensions": 5422,
      "ache": 5423,
      "Ġsolutions": 5424,
      "iate": 5425,
      "Ġsituations": 5426,
      "ĠClass": 5427,
      "Ġbow": 5428,
      "ĠFood": 5429,
      "indu": 5430,
      "Ġther": 5431,
      "ansion": 5432,
      "zing": 5433,
      "56": 5434,
      "De": 5435,
      "Ġflex": 5436,
      "anda": 5437,
      "Ġlooked": 5438,
      "lers": 5439,
      "ancing": 5440,
      "Ġocean": 5441,
      "Ġgovernments": 5442,
      "erent": 5443,
      "Ġwalls": 5444,
      "ĠParty": 5445,
      "Ġinstitution": 5446,
      "Ġfamiliar": 5447,
      "Ġcorpor": 5448,
      "Now": 5449,
      "Ġauthorities": 5450,
      "ĠTor": 5451,
      "Ġliquid": 5452,
      "ĠUSA": 5453,
      "Ġcommit": 5454,
      "73": 5455,
      "bran": 5456,
      "throp": 5457,
      "ulum": 5458,
      "add": 5459,
      "Ġcolle": 5460,
      "Ġprincip": 5461,
      "ait": 5462,
      "isp": 5463,
      "ĠPacific": 5464,
      "Ġfixed": 5465,
      "Ġprecise": 5466,
      "Ġintelligence": 5467,
      "96": 5468,
      "ĠLike": 5469,
      "Ã¢": 5470,
      "Ġ2019": 5471,
      "ĠCle": 5472,
      "Ġalle": 5473,
      "Ġroll": 5474,
      "ĠJe": 5475,
      "Ġnarrow": 5476,
      "gu": 5477,
      "board": 5478,
      "Ġancest": 5479,
      "itative": 5480,
      "ĠElect": 5481,
      "Ġethnic": 5482,
      "Ġaf": 5483,
      "ugh": 5484,
      "Ġdream": 5485,
      "Ġpages": 5486,
      "ĠFrancis": 5487,
      "oughly": 5488,
      "Ġleaving": 5489,
      "Ġfluid": 5490,
      "Ġextended": 5491,
      "cers": 5492,
      "Ġupd": 5493,
      "ĠHistor": 5494,
      "Ġobtain": 5495,
      "Ġrapidly": 5496,
      "but": 5497,
      "inn": 5498,
      "ĠIII": 5499,
      "Ind": 5500,
      "Ġdiscrim": 5501,
      "aks": 5502,
      "aturally": 5503,
      "Ġsacr": 5504,
      "Ġera": 5505,
      "aria": 5506,
      "down": 5507,
      "ĠYet": 5508,
      "uke": 5509,
      "ĠWomen": 5510,
      "Ġremaining": 5511,
      "Ġfocused": 5512,
      "Ġcapable": 5513,
      "Ġofficers": 5514,
      "Ġtoler": 5515,
      "Ġwitness": 5516,
      "state": 5517,
      "Ġachieved": 5518,
      "ĠMo": 5519,
      "Ġfalse": 5520,
      "Ġoutcomes": 5521,
      "Ġ1994": 5522,
      "Ġtrain": 5523,
      "ĠParis": 5524,
      "Ġdistrict": 5525,
      "ĠStudies": 5526,
      "Ġunlike": 5527,
      "idelines": 5528,
      "edu": 5529,
      "ĠGroup": 5530,
      "ĠMill": 5531,
      "Ġpark": 5532,
      "Ġcrisis": 5533,
      "Ġatmosphere": 5534,
      "Another": 5535,
      "Ġdescription": 5536,
      "Ġyellow": 5537,
      "ĠDirect": 5538,
      "Ġgames": 5539,
      "iders": 5540,
      "Ġfacilit": 5541,
      "osal": 5542,
      "under": 5543,
      "ĠRichard": 5544,
      "upp": 5545,
      "Ġcultiv": 5546,
      "stein": 5547,
      "Ġconsistent": 5548,
      "cal": 5549,
      "ĠCD": 5550,
      "ĠVirginia": 5551,
      "ĠCa": 5552,
      "Ġadvoc": 5553,
      "ola": 5554,
      "Ġabund": 5555,
      "umber": 5556,
      "Ġcandid": 5557,
      "comm": 5558,
      "Ġregional": 5559,
      "Ġteeth": 5560,
      "Ġfloor": 5561,
      "Ġoblig": 5562,
      "Ġrevealed": 5563,
      "Ġintervention": 5564,
      "Ġdescribes": 5565,
      "Ġencourage": 5566,
      "59": 5567,
      "ĠHeb": 5568,
      "eline": 5569,
      "Ġincl": 5570,
      "Ġsoul": 5571,
      "Ġexpert": 5572,
      "inction": 5573,
      "Ġprocedures": 5574,
      "Ġsurgery": 5575,
      "agon": 5576,
      "Ġexcellent": 5577,
      "ston": 5578,
      "Ġtasks": 5579,
      "Ġcalls": 5580,
      "74": 5581,
      "Ġpossibly": 5582,
      "Ġanxiety": 5583,
      "stream": 5584,
      "Ġonto": 5585,
      "Ġcognitive": 5586,
      "Ġratio": 5587,
      "ĠSl": 5588,
      "rd": 5589,
      "Ġterritory": 5590,
      "ĠData": 5591,
      "ping": 5592,
      "Ġplastic": 5593,
      "Ġclosed": 5594,
      "Ġdiversity": 5595,
      "urb": 5596,
      "Ġsuffering": 5597,
      "rolog": 5598,
      "ĠChildren": 5599,
      "Ġfigures": 5600,
      "Ġsurrounding": 5601,
      "Ġhypothes": 5602,
      "Ġlooks": 5603,
      "72": 5604,
      "Ġsend": 5605,
      "Ġuniverse": 5606,
      "ario": 5607,
      "Ġwel": 5608,
      "erves": 5609,
      "elled": 5610,
      "tenance": 5611,
      "Ġbehaviour": 5612,
      "ĠCy": 5613,
      "Ġinhib": 5614,
      "Ġrespectively": 5615,
      "Ġcomparison": 5616,
      "Ġforth": 5617,
      "ĠLeg": 5618,
      "Ġcontribute": 5619,
      "ĠMad": 5620,
      "Ġneither": 5621,
      "Ġerror": 5622,
      "ĠCarol": 5623,
      "tle": 5624,
      "Ùİ": 5625,
      "Ġwhereas": 5626,
      "ĠEmpire": 5627,
      "Ġapart": 5628,
      "Ġaw": 5629,
      "Many": 5630,
      "Ġeggs": 5631,
      "dden": 5632,
      "RI": 5633,
      "ĠReport": 5634,
      "ĠAtt": 5635,
      "itan": 5636,
      "pd": 5637,
      "Ġmarked": 5638,
      "Ġsurpris": 5639,
      "Ġdiscover": 5640,
      "ny": 5641,
      "Ġneuro": 5642,
      "inating": 5643,
      "Ġindex": 5644,
      "ĠOffice": 5645,
      "rastructure": 5646,
      "ogue": 5647,
      "ĠLand": 5648,
      "Ġparticles": 5649,
      "Ġroots": 5650,
      "itudes": 5651,
      "Ġdocuments": 5652,
      "aud": 5653,
      "Ġflat": 5654,
      "Ġparalle": 5655,
      "ses": 5656,
      "Ġsusp": 5657,
      "pat": 5658,
      "edy": 5659,
      "Ġju": 5660,
      "Ġmerely": 5661,
      "oking": 5662,
      "Ġ36": 5663,
      "'ll": 5664,
      "Ġsen": 5665,
      "ĠLong": 5666,
      "Ġevil": 5667,
      "Ġinstruction": 5668,
      "ĠBet": 5669,
      "Ġwet": 5670,
      "Ġoccasion": 5671,
      "cher": 5672,
      "Ġstruggle": 5673,
      "ĠBank": 5674,
      "Ġresponses": 5675,
      "Ġdestroyed": 5676,
      "Med": 5677,
      "Ġlinks": 5678,
      "ibilities": 5679,
      "Ġelectricity": 5680,
      "ĠâĢ¢": 5681,
      "ifies": 5682,
      "Ġmountain": 5683,
      "eenth": 5684,
      "Ġequival": 5685,
      "from": 5686,
      "Ġcert": 5687,
      "rat": 5688,
      "teen": 5689,
      "Ġjobs": 5690,
      "Ab": 5691,
      "Ġsyndrome": 5692,
      "ita": 5693,
      "Ġpreval": 5694,
      "ĠProv": 5695,
      "ĠChic": 5696,
      "Ġextensive": 5697,
      "Ġpig": 5698,
      "Ġthin": 5699,
      "Ġsets": 5700,
      "Ġyield": 5701,
      "plicated": 5702,
      "ulin": 5703,
      "Ġfoss": 5704,
      "ĠInformation": 5705,
      "Ġdoor": 5706,
      "Ġthoughts": 5707,
      "HO": 5708,
      "Ġwid": 5709,
      "aph": 5710,
      "Ġremark": 5711,
      "Ġsubs": 5712,
      "Ġspeaking": 5713,
      "Ġconservation": 5714,
      "Ġcrops": 5715,
      "Ġships": 5716,
      "ĠHim": 5717,
      "Ġclassroom": 5718,
      "reland": 5719,
      "Ġdepos": 5720,
      "ĠPost": 5721,
      "Ġkeeping": 5722,
      "500": 5723,
      "Ġbear": 5724,
      "ĠImp": 5725,
      "Ġstages": 5726,
      "Ġmanage": 5727,
      "cium": 5728,
      "Ġaccurate": 5729,
      "car": 5730,
      "Ġsalt": 5731,
      "Ġsudden": 5732,
      "orrow": 5733,
      "Ġmechanism": 5734,
      "luding": 5735,
      "idden": 5736,
      "Ġacknow": 5737,
      "irty": 5738,
      "Ġprem": 5739,
      "Ġliver": 5740,
      "Ġvisible": 5741,
      "va": 5742,
      "CT": 5743,
      "Ġlung": 5744,
      "Ġreplaced": 5745,
      "Ġorganized": 5746,
      "âĢĺ": 5747,
      "88": 5748,
      "prise": 5749,
      "Ġdecrease": 5750,
      "Ġindicated": 5751,
      "Ġassistance": 5752,
      "ĠOxford": 5753,
      "ĠGold": 5754,
      "Ġfounded": 5755,
      "ĠInstead": 5756,
      "Ġsupplement": 5757,
      "Ġthy": 5758,
      "ta": 5759,
      "Ġsupposed": 5760,
      "Here": 5761,
      "cycl": 5762,
      "celer": 5763,
      "Ġsucceed": 5764,
      "orter": 5765,
      "ĠMicro": 5766,
      "Ġtransmission": 5767,
      "Ġsell": 5768,
      "Ġseemed": 5769,
      "Ġmit": 5770,
      "hemical": 5771,
      "Ġsubstance": 5772,
      "ĠFrank": 5773,
      "Ġunknown": 5774,
      "ĠOnly": 5775,
      "Ġemployed": 5776,
      "born": 5777,
      "isters": 5778,
      "Ġaccounts": 5779,
      "Ġagencies": 5780,
      "93": 5781,
      "ca": 5782,
      "ĠItaly": 5783,
      "Ġhunt": 5784,
      "ĠStand": 5785,
      "à¥": 5786,
      "Ġopposite": 5787,
      "ĠOut": 5788,
      "Ġoriginally": 5789,
      "rus": 5790,
      "eles": 5791,
      "Ġabuse": 5792,
      "Ġnone": 5793,
      "oven": 5794,
      "Ġindicates": 5795,
      "Ġstem": 5796,
      "rors": 5797,
      "Ġsurvival": 5798,
      "ĠCult": 5799,
      "ancer": 5800,
      "ala": 5801,
      "hips": 5802,
      "Ġ1993": 5803,
      "Ġwhatever": 5804,
      "ĠPan": 5805,
      "Ġplate": 5806,
      "ĠMag": 5807,
      "Ġrenew": 5808,
      "Ġtested": 5809,
      "ooth": 5810,
      "PD": 5811,
      "Ġmonitoring": 5812,
      "Ġexists": 5813,
      "ĠNature": 5814,
      "ifications": 5815,
      "Ġvulner": 5816,
      "ĠDar": 5817,
      "erior": 5818,
      "ĠBrown": 5819,
      "tage": 5820,
      "olve": 5821,
      "Ġsuitable": 5822,
      "ĠFam": 5823,
      "Ġgrade": 5824,
      "roke": 5825,
      "ĠStat": 5826,
      "Ġawareness": 5827,
      "rovers": 5828,
      "long": 5829,
      "Ġsecure": 5830,
      "Ġ2020": 5831,
      "Ġ1960": 5832,
      "ĠRevolution": 5833,
      "ĠSum": 5834,
      "Ġfeelings": 5835,
      "According": 5836,
      "Ġdemonstrated": 5837,
      "Ġrecognize": 5838,
      "ĠTer": 5839,
      "ena": 5840,
      "apes": 5841,
      "otyp": 5842,
      "Ġhusband": 5843,
      "ĠFe": 5844,
      "Ġgreatly": 5845,
      "orses": 5846,
      "During": 5847,
      "Ġworship": 5848,
      "Ġagriculture": 5849,
      "ĠCanadian": 5850,
      "UR": 5851,
      "Ġcomposition": 5852,
      "Ġstorm": 5853,
      "Ġbright": 5854,
      "Ġframework": 5855,
      "Ġdepart": 5856,
      "Ġpromin": 5857,
      "Ġpositions": 5858,
      "Ġtransition": 5859,
      "Ġpolitics": 5860,
      "ani": 5861,
      "Ġresulted": 5862,
      "ĠClin": 5863,
      "Ġpassage": 5864,
      "Ġdivision": 5865,
      "Ġchosen": 5866,
      "Ġintroduction": 5867,
      "ificial": 5868,
      "Ġvaccine": 5869,
      "ĠScholar": 5870,
      "Ġcouple": 5871,
      "Ġassociation": 5872,
      ".âĢĻ": 5873,
      "wing": 5874,
      "53": 5875,
      "Ġinterpretation": 5876,
      "Ġdiscipl": 5877,
      "Ġphr": 5878,
      "peror": 5879,
      "Ġgrown": 5880,
      "Ġ1992": 5881,
      "alm": 5882,
      "active": 5883,
      "ĠFort": 5884,
      "ĠIreland": 5885,
      "Res": 5886,
      "Ġimplementation": 5887,
      "Ġnewsp": 5888,
      "Ġproceed": 5889,
      "erals": 5890,
      "Ġmixed": 5891,
      "----": 5892,
      "Ġflight": 5893,
      "ĠÐ": 5894,
      "ĠId": 5895,
      "ditionally": 5896,
      "ĠEnergy": 5897,
      "Ġagreed": 5898,
      "Ġinteraction": 5899,
      "ĠManagement": 5900,
      "Ġfilled": 5901,
      "Ġintellectual": 5902,
      "LE": 5903,
      "tra": 5904,
      "Ġnecessarily": 5905,
      "Ġwish": 5906,
      "Ġvaluable": 5907,
      "Ġmechanisms": 5908,
      "Ġhundreds": 5909,
      "pected": 5910,
      "Ġsed": 5911,
      "Ġengineering": 5912,
      "osh": 5913,
      "inson": 5914,
      "Ġdecline": 5915,
      "Ġhearing": 5916,
      "Ġlisted": 5917,
      "ota": 5918,
      "Ġproportion": 5919,
      "ava": 5920,
      "load": 5921,
      "Ġemployees": 5922,
      "Ġprotected": 5923,
      "Ġsick": 5924,
      "Ġsup": 5925,
      "Ġcrucial": 5926,
      "Ġlegisl": 5927,
      "52": 5928,
      "Ġod": 5929,
      "otion": 5930,
      "ĠProp": 5931,
      "ĠWind": 5932,
      "ashion": 5933,
      "Ġborder": 5934,
      "97": 5935,
      "utch": 5936,
      "Ġopening": 5937,
      "Ġgone": 5938,
      "Ġsole": 5939,
      "Ġexpensive": 5940,
      "orph": 5941,
      "ĠSpain": 5942,
      "zil": 5943,
      "Ġwilling": 5944,
      "Ġelectrical": 5945,
      "IP": 5946,
      "'ve": 5947,
      "bour": 5948,
      "],": 5949,
      "estion": 5950,
      "Ġpra": 5951,
      "Ġhero": 5952,
      "Ġchain": 5953,
      "Ġdebate": 5954,
      "sets": 5955,
      "zen": 5956,
      "Ġcontained": 5957,
      "Ġil": 5958,
      "á¹": 5959,
      "Ġload": 5960,
      "Ġappreci": 5961,
      "ye": 5962,
      "abb": 5963,
      "Ġdensity": 5964,
      "ĠArticle": 5965,
      "ĠCamp": 5966,
      "Ġoral": 5967,
      "57": 5968,
      ")||": 5969,
      "Ġarrest": 5970,
      "Ġfiles": 5971,
      "ona": 5972,
      "Ġeastern": 5973,
      "Ġ38": 5974,
      "rative": 5975,
      "erning": 5976,
      "51": 5977,
      "08": 5978,
      "Ġfunding": 5979,
      "ĠBre": 5980,
      "ishment": 5981,
      "ĠVict": 5982,
      "Ġstret": 5983,
      "Pl": 5984,
      "ĠThose": 5985,
      "ĠNews": 5986,
      "iac": 5987,
      "called": 5988,
      "Ġdeliver": 5989,
      "Ġconclusion": 5990,
      "Ġmoist": 5991,
      "ishop": 5992,
      "Ġrequest": 5993,
      "Ġharvest": 5994,
      "Fig": 5995,
      "Ġlose": 5996,
      "Ġmatters": 5997,
      "ĠHaw": 5998,
      "Ġexperiments": 5999,
      "Ġjoined": 6000,
      "Ġtun": 6001,
      "Ġwire": 6002,
      "Ġdrinking": 6003,
      "pet": 6004,
      "Ġinner": 6005,
      "ĠGood": 6006,
      "Ġ×": 6007,
      "Ġ32": 6008,
      "Ġbird": 6009,
      "ĠRad": 6010,
      "ĠâĨĳ": 6011,
      "Ġfaster": 6012,
      "Ġresidents": 6013,
      "Ġentered": 6014,
      "Ġbeings": 6015,
      "Ġcircuit": 6016,
      "itage": 6017,
      "Ġsought": 6018,
      "Ġeld": 6019,
      "Ġsounds": 6020,
      "54": 6021,
      "rison": 6022,
      "Ġru": 6023,
      "Ġunable": 6024,
      "struct": 6025,
      "Ġemergency": 6026,
      "My": 6027,
      "Ġspend": 6028,
      "atal": 6029,
      "Ġgenerated": 6030,
      "Ġfighting": 6031,
      "arant": 6032,
      "Ġpaint": 6033,
      "ĠTimes": 6034,
      "Ġevaluation": 6035,
      "Ġlimits": 6036,
      "stract": 6037,
      "htt": 6038,
      "Ġclaimed": 6039,
      "Ġing": 6040,
      "Ġaband": 6041,
      "Ġnormally": 6042,
      "icit": 6043,
      "Ġfunctional": 6044,
      "Ġmm": 6045,
      "sue": 6046,
      "Ġrecept": 6047,
      "icks": 6048,
      "Ġimmediate": 6049,
      "ĠFlor": 6050,
      "Ġpotentially": 6051,
      "oples": 6052,
      "Ġultimately": 6053,
      "Most": 6054,
      "apping": 6055,
      "Ġnaturally": 6056,
      "Ġtank": 6057,
      "Ġsomewhat": 6058,
      "Ġhem": 6059,
      "Ġdeclared": 6060,
      "ĠGal": 6061,
      "bur": 6062,
      "ĠPower": 6063,
      "Ġbeliefs": 6064,
      "Ġkil": 6065,
      "IA": 6066,
      "Ġproducing": 6067,
      "Ġbroken": 6068,
      "Ġplaying": 6069,
      "ascular": 6070,
      "theless": 6071,
      "Ġelection": 6072,
      "Ġnetworks": 6073,
      "Ġwindow": 6074,
      "Ġflag": 6075,
      "Ġtells": 6076,
      "Ġordered": 6077,
      "Ġthor": 6078,
      "Ġrid": 6079,
      "Ġgirls": 6080,
      "orith": 6081,
      "venue": 6082,
      "ditional": 6083,
      "Ġarrange": 6084,
      "Ġvital": 6085,
      "________": 6086,
      "ĠSol": 6087,
      "igation": 6088,
      "ĠDise": 6089,
      "Ġinfrastructure": 6090,
      "hav": 6091,
      "Ġcultures": 6092,
      "ĠTable": 6093,
      "ella": 6094,
      "Ġchrom": 6095,
      "herent": 6096,
      "Ġtal": 6097,
      "quar": 6098,
      "ĠAny": 6099,
      "Ġissued": 6100,
      "alls": 6101,
      "Ġ500": 6102,
      "Ġbudget": 6103,
      "ĠMedicine": 6104,
      "Ġsimpl": 6105,
      "Ġwithd": 6106,
      "Ġunp": 6107,
      "Ġecosystem": 6108,
      "ĠIP": 6109,
      "ĠNations": 6110,
      "Ġpermanent": 6111,
      "xts": 6112,
      "uilding": 6113,
      "Ġhit": 6114,
      "ĠSir": 6115,
      "IR": 6116,
      "Ġexplo": 6117,
      "ĠRoyal": 6118,
      "Ġrecognition": 6119,
      "Ġhelpful": 6120,
      "Ġexperts": 6121,
      "Why": 6122,
      "Ġabsence": 6123,
      "Ġagents": 6124,
      "flow": 6125,
      "ounded": 6126,
      "Ġpron": 6127,
      "anguage": 6128,
      "Ġdrop": 6129,
      "Ġvehicle": 6130,
      "Ġmaintenance": 6131,
      "arn": 6132,
      "ĠNorthern": 6133,
      "ĠFather": 6134,
      "ĠMoreover": 6135,
      "ĠExp": 6136,
      "Ġconsiderable": 6137,
      "icide": 6138,
      "ĠRom": 6139,
      "Ġ1991": 6140,
      "imens": 6141,
      "ĠStep": 6142,
      "Ġadvice": 6143,
      "Ġvote": 6144,
      "Ġsensitive": 6145,
      "03": 6146,
      "eck": 6147,
      "pping": 6148,
      "Ġnurs": 6149,
      "ano": 6150,
      "Ġregist": 6151,
      "Ġgather": 6152,
      "Ġinject": 6153,
      "ĠMedical": 6154,
      "Ġtrials": 6155,
      "Ġundert": 6156,
      "64": 6157,
      "Ġattend": 6158,
      "gov": 6159,
      "essor": 6160,
      "ĠCommon": 6161,
      "ĠChristians": 6162,
      "Ġlibrary": 6163,
      "Ġraise": 6164,
      "ample": 6165,
      "ĠHebrew": 6166,
      "stone": 6167,
      "ĠSup": 6168,
      "Ġpersist": 6169,
      "Ġaccum": 6170,
      "Ġresolution": 6171,
      "Ġconcerning": 6172,
      "Ġends": 6173,
      "iration": 6174,
      "92": 6175,
      "Ġexpansion": 6176,
      "Ġstanding": 6177,
      "EP": 6178,
      "Ġpregnancy": 6179,
      "Ġedge": 6180,
      "Ġmac": 6181,
      "ĠSouthern": 6182,
      "bra": 6183,
      "Ġdifficulty": 6184,
      "ĠItalian": 6185,
      "Ġweapons": 6186,
      "ĠHall": 6187,
      "ropical": 6188,
      "Ġgrew": 6189,
      "Ġpump": 6190,
      "Ġtalking": 6191,
      "inder": 6192,
      "free": 6193,
      "Ġsubsequent": 6194,
      "See": 6195,
      "ĠToday": 6196,
      "Ġuns": 6197,
      "Ġlies": 6198,
      "Ġprohib": 6199,
      "Ġcrime": 6200,
      "Ġmembran": 6201,
      "gent": 6202,
      "Ġban": 6203,
      "Ġobjective": 6204,
      "ĠChicago": 6205,
      "ĠControl": 6206,
      "Ġshift": 6207,
      "Ġdebt": 6208,
      "Ġye": 6209,
      "Ġtreatments": 6210,
      "Ġnegot": 6211,
      "ady": 6212,
      "Ġsight": 6213,
      "hesis": 6214,
      "Ġexplains": 6215,
      "Ġlabel": 6216,
      "American": 6217,
      "ĠEastern": 6218,
      "Ġelectro": 6219,
      "rin": 6220,
      "Ġbanks": 6221,
      "Des": 6222,
      "Ġemployment": 6223,
      "Ġstars": 6224,
      "Ġourselves": 6225,
      "ĠSecret": 6226,
      "faces": 6227,
      "Ġdestruction": 6228,
      "igned": 6229,
      "Ġadding": 6230,
      "ctive": 6231,
      "CS": 6232,
      "Ġmanaged": 6233,
      "last": 6234,
      "Ġmassive": 6235,
      "sey": 6236,
      "Ġfulf": 6237,
      "Ġtruly": 6238,
      "ints": 6239,
      "cules": 6240,
      "Ġflowers": 6241,
      "Ġmamm": 6242,
      "Ġlaboratory": 6243,
      "Ġfoundation": 6244,
      "ĠIrish": 6245,
      "Ġnine": 6246,
      "Ġconqu": 6247,
      "Google": 6248,
      "ĠIll": 6249,
      "Ġstored": 6250,
      "ĠTw": 6251,
      "Ġregul": 6252,
      "Ġhydro": 6253,
      "Ġtraffic": 6254,
      "Ġbrown": 6255,
      "Ġclust": 6256,
      "pan": 6257,
      "name": 6258,
      "Ġimpacts": 6259,
      "een": 6260,
      "ĠAS": 6261,
      "Ġrefuge": 6262,
      "Ġsnow": 6263,
      "Ġwriter": 6264,
      "Ġrub": 6265,
      "emia": 6266,
      "such": 6267,
      "06": 6268,
      "Ġexplanation": 6269,
      "everal": 6270,
      "Ġhoriz": 6271,
      "Ġhelping": 6272,
      "ĠTechnology": 6273,
      "ĠKingdom": 6274,
      "kes": 6275,
      "Ġcorn": 6276,
      "Ġafford": 6277,
      "Ġdelay": 6278,
      "Ġhousing": 6279,
      "Ġid": 6280,
      "ĠMichael": 6281,
      "agers": 6282,
      "Ġdatabase": 6283,
      "Ġplays": 6284,
      "Ġopposed": 6285,
      "asm": 6286,
      "Ġjourney": 6287,
      "Ġoverl": 6288,
      "riculum": 6289,
      "Ġaer": 6290,
      "ĠBab": 6291,
      "ĠEp": 6292,
      "Ġmode": 6293,
      "onia": 6294,
      "ureau": 6295,
      "rons": 6296,
      "Ġstimul": 6297,
      "ĠRob": 6298,
      "cribed": 6299,
      "oto": 6300,
      "normal": 6301,
      "ĠLibrary": 6302,
      "level": 6303,
      "eer": 6304,
      "Ġdiverse": 6305,
      "Ġprev": 6306,
      "ĠUsing": 6307,
      "Ġdrawn": 6308,
      "while": 6309,
      "Ġgall": 6310,
      "Ġenhance": 6311,
      "using": 6312,
      "Ġwants": 6313,
      "ĠBul": 6314,
      "ailed": 6315,
      "Ġhappy": 6316,
      "Ġindependence": 6317,
      "Ġvariable": 6318,
      "Ġleaf": 6319,
      "heast": 6320,
      "Ġmuscles": 6321,
      "Ġassert": 6322,
      "Ġstrongly": 6323,
      "Ġmaintained": 6324,
      "Ġaudience": 6325,
      "ĠJac": 6326,
      "hand": 6327,
      "Ġcriteria": 6328,
      "Ġ300": 6329,
      "Ġfunds": 6330,
      "Ġzone": 6331,
      "aid": 6332,
      "oids": 6333,
      "Ġcrop": 6334,
      "Ġrank": 6335,
      "ibl": 6336,
      "02": 6337,
      "ora": 6338,
      "Ġorient": 6339,
      "Ġcomposed": 6340,
      "Ġdiscovery": 6341,
      "zed": 6342,
      "Ġparticipation": 6343,
      "Ġinches": 6344,
      "ĠStudy": 6345,
      "ĠAND": 6346,
      "usions": 6347,
      "OL": 6348,
      "ĠSpirit": 6349,
      "eless": 6350,
      "Ġoutl": 6351,
      "eper": 6352,
      "ĠSing": 6353,
      "Ġcategories": 6354,
      "ĠCap": 6355,
      "rey": 6356,
      "ĠFurthermore": 6357,
      "Ġchemicals": 6358,
      "Ġadoles": 6359,
      "athe": 6360,
      "itter": 6361,
      "Ġboy": 6362,
      "ĠViet": 6363,
      "ĠScott": 6364,
      "ĠBoard": 6365,
      "ĠMah": 6366,
      "Ġdefend": 6367,
      "04": 6368,
      "Ġuniversal": 6369,
      "ĠCambridge": 6370,
      "Ġforg": 6371,
      "ĠWhere": 6372,
      "Ġconventional": 6373,
      "ĠForm": 6374,
      "Ġroute": 6375,
      "Ġreaders": 6376,
      "Sp": 6377,
      "101": 6378,
      "Ġsteel": 6379,
      "Ġmand": 6380,
      "UN": 6381,
      "ĠNaz": 6382,
      "Ġshot": 6383,
      "ivery": 6384,
      "Ġpollution": 6385,
      "Ġworse": 6386,
      "Ġfab": 6387,
      "gi": 6388,
      "Ġobservations": 6389,
      "Ġtwice": 6390,
      "ester": 6391,
      "Ġcompetition": 6392,
      "Ġtow": 6393,
      "Ġcoff": 6394,
      "Ġsuffer": 6395,
      "Ġrecovery": 6396,
      "Ġknows": 6397,
      "Ġsustainable": 6398,
      "Ġtemple": 6399,
      "Ġequivalent": 6400,
      "ĠCare": 6401,
      "ocation": 6402,
      "greg": 6403,
      "Ġtexts": 6404,
      "Ġattached": 6405,
      "Ġdedic": 6406,
      "omer": 6407,
      "Ġended": 6408,
      "ĠValley": 6409,
      "Ġcontrovers": 6410,
      "Ġshel": 6411,
      "Ġregulations": 6412,
      "yal": 6413,
      "Ġble": 6414,
      "bid": 6415,
      "ĠIran": 6416,
      "Ġterror": 6417,
      "Ġnutrients": 6418,
      "Ġhaz": 6419,
      "Ġcounty": 6420,
      "Ġjudge": 6421,
      "Ġunderlying": 6422,
      "67": 6423,
      "Ġseeing": 6424,
      "Ġdecide": 6425,
      "ymph": 6426,
      "trans": 6427,
      "Ġsignificance": 6428,
      "ĠColumb": 6429,
      "Ġentry": 6430,
      "Ġopposition": 6431,
      "tes": 6432,
      "91": 6433,
      "struction": 6434,
      "ĠAustralian": 6435,
      "Ġscript": 6436,
      "Ġcart": 6437,
      "Ġmg": 6438,
      "Ġparallel": 6439,
      "BS": 6440,
      "Ġprevention": 6441,
      ".).": 6442,
      "ctor": 6443,
      "Ġwear": 6444,
      "Ġtheories": 6445,
      "Ġtheore": 6446,
      "Do": 6447,
      "isdom": 6448,
      "Ġalgorith": 6449,
      "omach": 6450,
      "Ġsweet": 6451,
      "Ġ48": 6452,
      "gans": 6453,
      "lease": 6454,
      "Ġacceler": 6455,
      "Ġshell": 6456,
      "anta": 6457,
      "Ġslowly": 6458,
      "Ġdomain": 6459,
      "Ġprove": 6460,
      "ĠWrit": 6461,
      "Ġoptim": 6462,
      "then": 6463,
      "Ġpsychological": 6464,
      "CA": 6465,
      "Ġproved": 6466,
      "Ġfertil": 6467,
      "roduction": 6468,
      "Ġcarefully": 6469,
      "Ġrational": 6470,
      "ĠGlobal": 6471,
      "Ġhorses": 6472,
      "ĠEngine": 6473,
      "ĠDet": 6474,
      "Ġpercentage": 6475,
      "ĠFoundation": 6476,
      "ĠHill": 6477,
      "Ġcontemporary": 6478,
      "Ġmortality": 6479,
      "ĠGeorg": 6480,
      "Ġepid": 6481,
      "riers": 6482,
      "Ġheaven": 6483,
      "Ġblog": 6484,
      "Ġanalys": 6485,
      "Ġappointed": 6486,
      "Ġmillions": 6487,
      "Ġsuccessfully": 6488,
      "Ġstable": 6489,
      "Ġvs": 6490,
      "ĠLabor": 6491,
      "Ġminim": 6492,
      "Ġengage": 6493,
      "Ġcommission": 6494,
      "Ġsuperior": 6495,
      "Ġinterpre": 6496,
      "dis": 6497,
      "Ġpretty": 6498,
      "lets": 6499,
      "Ġswitch": 6500,
      "Ġwriters": 6501,
      "Ġguard": 6502,
      "Ġimprovement": 6503,
      "ĠThrough": 6504,
      "Ġcorrel": 6505,
      "lick": 6506,
      "Table": 6507,
      "ĠLab": 6508,
      "xual": 6509,
      "Ġcomprehensive": 6510,
      "Ġlocations": 6511,
      "Ġvariables": 6512,
      "ĠPenn": 6513,
      "Ġdefense": 6514,
      "phone": 6515,
      "vironments": 6516,
      "ĠScot": 6517,
      "Ġregularly": 6518,
      "Ġtopics": 6519,
      "Ġvessels": 6520,
      "Ġhabitat": 6521,
      "Ġattempts": 6522,
      "Ġgluc": 6523,
      "94": 6524,
      "iological": 6525,
      "Ġdecade": 6526,
      "ĠKnow": 6527,
      "Ġbread": 6528,
      "Ġproduces": 6529,
      "Ġformat": 6530,
      "Ġsignals": 6531,
      "Ġconsciousness": 6532,
      "Ġholding": 6533,
      "Ġsections": 6534,
      "Ġstreet": 6535,
      "Ġgenerate": 6536,
      "Ġprincipal": 6537,
      "Ġscene": 6538,
      "operation": 6539,
      "Ġom": 6540,
      "obe": 6541,
      "Ġstands": 6542,
      "Ġlandscape": 6543,
      "Ġlegislation": 6544,
      "ĠWood": 6545,
      "Ġinfant": 6546,
      "Ġalter": 6547,
      "ether": 6548,
      "Ġadequate": 6549,
      "ĠMer": 6550,
      "Ġsurvive": 6551,
      "pes": 6552,
      "Ġtail": 6553,
      "Ġduty": 6554,
      "Ġagency": 6555,
      "Ġforests": 6556,
      "DP": 6557,
      "uts": 6558,
      "Ġaffects": 6559,
      "Ġbusinesses": 6560,
      "Other": 6561,
      "Ġwaves": 6562,
      "Ġelected": 6563,
      "Ġremote": 6564,
      "Ġages": 6565,
      "ipe": 6566,
      "iary": 6567,
      "Ġgrav": 6568,
      "Ġcommitted": 6569,
      "Ġguarant": 6570,
      "usalem": 6571,
      "Ġstrict": 6572,
      "cope": 6573,
      "Ġbag": 6574,
      "ĠBrazil": 6575,
      "Ġoutcome": 6576,
      "Ġgranted": 6577,
      "Ġpair": 6578,
      "Ġcriminal": 6579,
      "Ġunion": 6580,
      "Ġfill": 6581,
      "Ġinflammation": 6582,
      "acing": 6583,
      "Ġsurve": 6584,
      "Ġconstructed": 6585,
      "Ġvoltage": 6586,
      "Ġ;": 6587,
      "ĠSat": 6588,
      "Ġorganisms": 6589,
      "LA": 6590,
      "Ġinteractions": 6591,
      "eness": 6592,
      "esides": 6593,
      "Ġmarkets": 6594,
      "Ġlaid": 6595,
      "umes": 6596,
      "ĠWhe": 6597,
      "Ġpus": 6598,
      "63": 6599,
      "yer": 6600,
      "Ġfourth": 6601,
      "Ġelev": 6602,
      "ĠMos": 6603,
      "Ġbless": 6604,
      "Ġjur": 6605,
      "ĠEffect": 6606,
      "Ġinfluenced": 6607,
      "ĠPop": 6608,
      "Ġtouch": 6609,
      "iability": 6610,
      "IM": 6611,
      "Ġuniversity": 6612,
      "Ġacids": 6613,
      "etics": 6614,
      "Ġdependent": 6615,
      "Ġcalcium": 6616,
      "Ġsupplies": 6617,
      "Ġargued": 6618,
      "ults": 6619,
      "Ġpull": 6620,
      "Ġradical": 6621,
      "Ġjoin": 6622,
      "Ġske": 6623,
      "writ": 6624,
      "Ġvariation": 6625,
      "ployment": 6626,
      "Ġdeaths": 6627,
      "Ġ1950": 6628,
      "Ġacute": 6629,
      "ura": 6630,
      "orous": 6631,
      "Ġshif": 6632,
      "ctic": 6633,
      "Ġfeeding": 6634,
      "ĠExper": 6635,
      "Ġcatch": 6636,
      "pling": 6637,
      "Ġlaun": 6638,
      "pread": 6639,
      "itual": 6640,
      "Ġtranslation": 6641,
      "iop": 6642,
      "rection": 6643,
      "Ġapproved": 6644,
      "Ġestimates": 6645,
      "ĠGoogle": 6646,
      "Ġ33": 6647,
      "ĠWild": 6648,
      "Ġphone": 6649,
      "abled": 6650,
      "CH": 6651,
      "ĠOh": 6652,
      "Ġpreced": 6653,
      "Ġcm": 6654,
      "Ġmobile": 6655,
      "ĠAge": 6656,
      "Ġdefine": 6657,
      "itivity": 6658,
      "mann": 6659,
      "Ġplease": 6660,
      "uma": 6661,
      "inking": 6662,
      "Ġment": 6663,
      "Ġfrequent": 6664,
      "illa": 6665,
      "Ġbeneficial": 6666,
      "Ġsla": 6667,
      "istical": 6668,
      "Ġsentence": 6669,
      "ĠAdminist": 6670,
      "Ġregarded": 6671,
      "ĠEnvironmental": 6672,
      "Ġreader": 6673,
      "07": 6674,
      "Bl": 6675,
      "Ġdistributed": 6676,
      "liest": 6677,
      "Ġdivine": 6678,
      "Ġsupporting": 6679,
      "Ġescape": 6680,
      "idespread": 6681,
      "Ġroutine": 6682,
      "Ġbio": 6683,
      "inally": 6684,
      "ĠSimilar": 6685,
      "oken": 6686,
      "kins": 6687,
      "Ġframe": 6688,
      "Ġaren": 6689,
      "Ġuncertain": 6690,
      "aneous": 6691,
      "ĠPak": 6692,
      "ĠSil": 6693,
      "oln": 6694,
      "ĠPet": 6695,
      "Ġreactions": 6696,
      "Ġbomb": 6697,
      "Ġfer": 6698,
      "Ġintake": 6699,
      "Ġvegetables": 6700,
      "ĠGrand": 6701,
      "Ġmolecules": 6702,
      "Ġvan": 6703,
      "yles": 6704,
      "ĠSupreme": 6705,
      "Ġcolors": 6706,
      "bar": 6707,
      "Ġcontrols": 6708,
      "awn": 6709,
      "ĠPolit": 6710,
      "Ġilleg": 6711,
      "Ġfashion": 6712,
      "Ġengaged": 6713,
      "Ġcompris": 6714,
      "being": 6715,
      "aine": 6716,
      "asive": 6717,
      "agues": 6718,
      "Ġvac": 6719,
      "Ġanswers": 6720,
      "ĠHy": 6721,
      "oir": 6722,
      "Ġhonor": 6723,
      "CD": 6724,
      "ĠStudents": 6725,
      "Ġbattery": 6726,
      "reek": 6727,
      "Ġlie": 6728,
      "brid": 6729,
      "ĠChristianity": 6730,
      "how": 6731,
      "Ġslaves": 6732,
      "Ġyounger": 6733,
      "medi": 6734,
      "Ġelectronic": 6735,
      "Ġcreates": 6736,
      "Ed": 6737,
      "Ġguidelines": 6738,
      "ĠAmong": 6739,
      "Ġingred": 6740,
      "Ġastron": 6741,
      "Ġcloser": 6742,
      "Ġsatisf": 6743,
      "scale": 6744,
      "Ġslavery": 6745,
      "ĠEnd": 6746,
      "Let": 6747,
      "Ġinvolving": 6748,
      "Ġassigned": 6749,
      "ĠMartin": 6750,
      "?\"": 6751,
      "ĠLearning": 6752,
      "ĠCast": 6753,
      "09": 6754,
      "ba": 6755,
      "Ġdose": 6756,
      "ĠIV": 6757,
      "ĠUp": 6758,
      "Ġchildhood": 6759,
      "iral": 6760,
      "Ġagent": 6761,
      "UT": 6762,
      "tery": 6763,
      "Ġcaptured": 6764,
      "Ġflav": 6765,
      "Â·": 6766,
      "Ġran": 6767,
      "oding": 6768,
      "Ġcategory": 6769,
      "Ġampl": 6770,
      "2007": 6771,
      "irt": 6772,
      "Ġmedications": 6773,
      "Ġconfidence": 6774,
      "class": 6775,
      "izer": 6776,
      "Ġpurchase": 6777,
      "Ã¤": 6778,
      "Ġcompounds": 6779,
      "lishing": 6780,
      "Ġring": 6781,
      "Ġchart": 6782,
      "Ġ1989": 6783,
      "61": 6784,
      "Ġpictures": 6785,
      "isted": 6786,
      "Ġdirected": 6787,
      "Ġenable": 6788,
      "69": 6789,
      "Ġcentre": 6790,
      "Ġ>": 6791,
      "Ġinfected": 6792,
      "Ġexperimental": 6793,
      "ĠJerusalem": 6794,
      "ĠEr": 6795,
      "',": 6796,
      "erty": 6797,
      "ĠScient": 6798,
      "Ġreceiving": 6799,
      "Ġraw": 6800,
      "Ġcryst": 6801,
      "Ġskill": 6802,
      "Ġequally": 6803,
      "ĠPalest": 6804,
      "mas": 6805,
      "ĠKar": 6806,
      "iber": 6807,
      "Our": 6808,
      "Ġmales": 6809,
      "Ġarchitecture": 6810,
      "Ġfilter": 6811,
      "Ġproof": 6812,
      "Ġrig": 6813,
      "Ġmath": 6814,
      "ĠNatural": 6815,
      "Ġfruits": 6816,
      "Ġestimate": 6817,
      "Ġinvestigation": 6818,
      "Ġpeoples": 6819,
      "Ġunus": 6820,
      "Ġfurn": 6821,
      "Ġfly": 6822,
      "Ġbrand": 6823,
      "Ġconsideration": 6824,
      "ĠTime": 6825,
      "Ġslave": 6826,
      "Ġenvironments": 6827,
      "icted": 6828,
      "Ġcreative": 6829,
      "Ġassume": 6830,
      "Ġfemales": 6831,
      "azine": 6832,
      "Ġorders": 6833,
      "Ġ)": 6834,
      "Ġpref": 6835,
      "Ġclient": 6836,
      "apse": 6837,
      "Ġclick": 6838,
      "otton": 6839,
      "ĠTestament": 6840,
      "cyclop": 6841,
      "urrent": 6842,
      "Ġinher": 6843,
      "Ġoperate": 6844,
      "ruption": 6845,
      "2006": 6846,
      "ĠVictor": 6847,
      "rone": 6848,
      "Ġmicros": 6849,
      "iana": 6850,
      "Ġstick": 6851,
      "Ġexamination": 6852,
      "ĠLee": 6853,
      "Ġmanufacturing": 6854,
      "ĠCarolina": 6855,
      "rous": 6856,
      "Ġlesson": 6857,
      "Ġsubstantial": 6858,
      "Ġaccident": 6859,
      "ĠAbout": 6860,
      "ude": 6861,
      "Ġstre": 6862,
      "ĠSk": 6863,
      "Ġmanip": 6864,
      "oz": 6865,
      "Ġblow": 6866,
      "ĠBill": 6867,
      "Ġcloud": 6868,
      "Ġnoise": 6869,
      "Ġdust": 6870,
      "otype": 6871,
      "Ġdanger": 6872,
      "RA": 6873,
      "ĠMel": 6874,
      "ĠEdward": 6875,
      "forcement": 6876,
      "Ġsigned": 6877,
      "Ġcharacterized": 6878,
      "ĠEarly": 6879,
      "ogenic": 6880,
      "Ġrelief": 6881,
      "ourse": 6882,
      "Ġbones": 6883,
      "Ġdriving": 6884,
      "Ġzero": 6885,
      "Ġintent": 6886,
      "aked": 6887,
      "Ġdesired": 6888,
      "ĠFlorida": 6889,
      "Le": 6890,
      "Ġexception": 6891,
      "usiness": 6892,
      "Ġtribes": 6893,
      "olester": 6894,
      "Ġinstruments": 6895,
      "Ġpreparation": 6896,
      "Ġwww": 6897,
      "CE": 6898,
      "Ġtrained": 6899,
      "ĠMinister": 6900,
      "Ġcapture": 6901,
      "ĠTre": 6902,
      "Ġwidespread": 6903,
      "Ġimproving": 6904,
      "vi": 6905,
      "Since": 6906,
      "ĠForce": 6907,
      "sis": 6908,
      "ĠVer": 6909,
      "Ġplus": 6910,
      "2008": 6911,
      "ĠPrince": 6912,
      "aser": 6913,
      "Ġpublication": 6914,
      "2010": 6915,
      "Ġmanifest": 6916,
      "Ġseeking": 6917,
      "abeth": 6918,
      "ĠRef": 6919,
      "urches": 6920,
      "Ġrow": 6921,
      "Ġdelivery": 6922,
      "Ġdesert": 6923,
      "Ġsatell": 6924,
      "ĠJohnson": 6925,
      "ĪĴ": 6926,
      "Ġroles": 6927,
      "ommod": 6928,
      "Ġcosm": 6929,
      "Ġconcrete": 6930,
      "Ġpapers": 6931,
      "Ġexamine": 6932,
      "ĠFinally": 6933,
      "html": 6934,
      "ented": 6935,
      "Ġadvert": 6936,
      "elfare": 6937,
      "62": 6938,
      "raq": 6939,
      "Ġroof": 6940,
      "Ġkingdom": 6941,
      "Ġinsert": 6942,
      "Ġinstructions": 6943,
      "heim": 6944,
      "Ġcourts": 6945,
      "Ġvehicles": 6946,
      "Ġsod": 6947,
      "ĠEc": 6948,
      "Ġdemonstrate": 6949,
      "Ġdischar": 6950,
      ".:": 6951,
      "Ġconven": 6952,
      "mes": 6953,
      "Ġevident": 6954,
      "Ġdedicated": 6955,
      "uter": 6956,
      "action": 6957,
      "Ġstarts": 6958,
      "Ġ75": 6959,
      "Ġrepresentation": 6960,
      "ĠParliament": 6961,
      "archy": 6962,
      "Ġcav": 6963,
      "Ġbridge": 6964,
      "ĠAccess": 6965,
      "oured": 6966,
      "ventions": 6967,
      "ĠSaf": 6968,
      "Ġracial": 6969,
      "Ġgenerations": 6970,
      "Ġcourses": 6971,
      "orted": 6972,
      "asant": 6973,
      "Ġbatt": 6974,
      "Ġblind": 6975,
      "Ġdepartment": 6976,
      "Ġisolated": 6977,
      "Ġdirector": 6978,
      "Ġrising": 6979,
      "Ġpropag": 6980,
      "Ġhandle": 6981,
      "Ġgods": 6982,
      "Ġparticipate": 6983,
      "ĠMen": 6984,
      "ollowing": 6985,
      "ipping": 6986,
      "incoln": 6987,
      "Ġstomach": 6988,
      "Ġcomputers": 6989,
      "net": 6990,
      "asty": 6991,
      "fortunately": 6992,
      "making": 6993,
      "Qu": 6994,
      "Ġplane": 6995,
      "Ġmeth": 6996,
      "ĠFour": 6997,
      "Ġassumed": 6998,
      "Ġdin": 6999,
      "raham": 7000,
      "ifice": 7001,
      "Ġaccord": 7002,
      "ĠMS": 7003,
      "cel": 7004,
      "Ġworldwide": 7005,
      "Ġnerve": 7006,
      "Ġcrow": 7007,
      "Ġsky": 7008,
      "Ġgradually": 7009,
      "Ġcarrying": 7010,
      "met": 7011,
      "Ġmolecular": 7012,
      "Ġ978": 7013,
      "ali": 7014,
      "Ġneur": 7015,
      "doi": 7016,
      "Ġperception": 7017,
      "ĠAcc": 7018,
      "ĠImm": 7019,
      "iratory": 7020,
      "Ġfeedback": 7021,
      "Ġprepare": 7022,
      "2009": 7023,
      "Ġnom": 7024,
      "ĠPolic": 7025,
      "ĠThough": 7026,
      "ĠSar": 7027,
      "Of": 7028,
      "ĠSecurity": 7029,
      "ĠMuslims": 7030,
      "Ġfabric": 7031,
      "iments": 7032,
      "ighter": 7033,
      "ĠAtlantic": 7034,
      "89": 7035,
      "Ġdefinite": 7036,
      "Ġprominent": 7037,
      "Ġessentially": 7038,
      "Ġcolonial": 7039,
      "Ġdemands": 7040,
      "Ġbranch": 7041,
      "Ġmoon": 7042,
      "ĠNon": 7043,
      "ao": 7044,
      "ĠIslamic": 7045,
      "Ġconfirmed": 7046,
      "Ø§": 7047,
      "fish": 7048,
      "Ġemail": 7049,
      "Ġdys": 7050,
      "Ġtaste": 7051,
      "Ġpip": 7052,
      "ĠSpe": 7053,
      "ĠMoses": 7054,
      "Ġsolve": 7055,
      "Ġlabour": 7056,
      "Ġserver": 7057,
      "ivered": 7058,
      "ĠNAS": 7059,
      "ĠExt": 7060,
      "Ġemotions": 7061,
      "Ġritual": 7062,
      "Ġholds": 7063,
      "Ġturns": 7064,
      "Ġcolour": 7065,
      "top": 7066,
      "ila": 7067,
      "Ġhence": 7068,
      "Ġinternet": 7069,
      "Int": 7070,
      "ENT": 7071,
      "Ġtraditions": 7072,
      "Ġtransportation": 7073,
      "Ġvictims": 7074,
      "Ġcompens": 7075,
      "ediat": 7076,
      "Ġsettlement": 7077,
      "ĠPract": 7078,
      "OM": 7079,
      "ĠAM": 7080,
      "asters": 7081,
      "irus": 7082,
      "ĠPy": 7083,
      "Ġsupports": 7084,
      "Ġneck": 7085,
      "acts": 7086,
      "ums": 7087,
      "plant": 7088,
      "ĠThree": 7089,
      "ifferent": 7090,
      "Ġlect": 7091,
      "Ġtract": 7092,
      "olesterol": 7093,
      "Ġpassing": 7094,
      "Ġdetection": 7095,
      "Ġphosph": 7096,
      "Ġprotocol": 7097,
      "Ġcomments": 7098,
      "Ġmedication": 7099,
      "Ġowner": 7100,
      "Ġconnections": 7101,
      "Ġintegrated": 7102,
      "ĠDespite": 7103,
      "Ġmachines": 7104,
      "IDS": 7105,
      "Ġcustomers": 7106,
      "Ġlisten": 7107,
      "ourage": 7108,
      "amber": 7109,
      "Ġobservation": 7110,
      "raining": 7111,
      "Ġhab": 7112,
      "oric": 7113,
      "Ġlayers": 7114,
      "Ġsevent": 7115,
      "Ġestablishment": 7116,
      "85": 7117,
      "bing": 7118,
      "Ġmagnetic": 7119,
      "Ġfewer": 7120,
      "sts": 7121,
      "Ġinhabit": 7122,
      "ĠWall": 7123,
      "ixture": 7124,
      "Ġgained": 7125,
      "Ġsilver": 7126,
      "def": 7127,
      "Ġmarine": 7128,
      "ilosop": 7129,
      "Ġfossil": 7130,
      "Ġcars": 7131,
      "ĠMethod": 7132,
      "Ġelectron": 7133,
      "Ġwarming": 7134,
      "Ġconcluded": 7135,
      "hent": 7136,
      "Ġaccompan": 7137,
      "Ġdifficulties": 7138,
      "http": 7139,
      "ĠPakistan": 7140,
      "Ġuniform": 7141,
      "Ġrarely": 7142,
      "Ġwasn": 7143,
      "Ġthereby": 7144,
      "Ġofficer": 7145,
      "Ġprofessionals": 7146,
      "Ġhydrogen": 7147,
      "just": 7148,
      "Ġshop": 7149,
      "ĠPC": 7150,
      "Ġcommittee": 7151,
      "ĠSpace": 7152,
      "Ġcutting": 7153,
      "endment": 7154,
      "Ġinsurance": 7155,
      "uscript": 7156,
      "Ġdemocracy": 7157,
      "Ġtowns": 7158,
      "Ġsharing": 7159,
      "Ġparas": 7160,
      "Ġexceed": 7161,
      "ĠAcademy": 7162,
      "Ġregulation": 7163,
      "Ġruns": 7164,
      "Ġsuffered": 7165,
      "Us": 7166,
      "Ġstatements": 7167,
      "ube": 7168,
      "Ġphenomenon": 7169,
      "icious": 7170,
      "ĠEst": 7171,
      "Ġrhy": 7172,
      "Ġchoices": 7173,
      "Ġ37": 7174,
      "idance": 7175,
      "oston": 7176,
      "elve": 7177,
      "ĠAsian": 7178,
      "Ġprompt": 7179,
      "Ġpy": 7180,
      "Ġoffering": 7181,
      "ĠCreat": 7182,
      "occ": 7183,
      "was": 7184,
      "Ġinitially": 7185,
      ")|": 7186,
      "century": 7187,
      "Ġidentification": 7188,
      "ĠHome": 7189,
      "esh": 7190,
      "Ġcurriculum": 7191,
      "%.": 7192,
      "ĠDivision": 7193,
      "OC": 7194,
      "Ġbehaviors": 7195,
      "ĠCop": 7196,
      "Ġles": 7197,
      "erman": 7198,
      "zer": 7199,
      "sell": 7200,
      "Ġpainting": 7201,
      "izabeth": 7202,
      "ĠDen": 7203,
      "Ġacquired": 7204,
      "Ġscore": 7205,
      "aus": 7206,
      "ĠConn": 7207,
      "Ġstructural": 7208,
      "ĠOl": 7209,
      "Ġmatch": 7210,
      "Ġdism": 7211,
      "ĠPo": 7212,
      "Ġmeasurement": 7213,
      "More": 7214,
      "Ġrecip": 7215,
      "ĠEss": 7216,
      "Ġantibiot": 7217,
      "Ġislands": 7218,
      "Ġbeauty": 7219,
      "aneously": 7220,
      "Ġinformed": 7221,
      "Ġnerv": 7222,
      "ĠFree": 7223,
      "ĠEqu": 7224,
      "atively": 7225,
      "Ġcombat": 7226,
      "Ġmos": 7227,
      "2005": 7228,
      "ĠHor": 7229,
      "ocial": 7230,
      "ĠYoung": 7231,
      "Ġfiber": 7232,
      "ĠIndeed": 7233,
      "ulty": 7234,
      "Ġearliest": 7235,
      "Ġconsidering": 7236,
      "ĠNative": 7237,
      "bel": 7238,
      "Ġplanned": 7239,
      "Ġmaintaining": 7240,
      "Ġfract": 7241,
      "Ġdiscrimination": 7242,
      "ilation": 7243,
      "rene": 7244,
      "Ġclar": 7245,
      "ati": 7246,
      "ĠRead": 7247,
      "icular": 7248,
      "real": 7249,
      "eren": 7250,
      "Ġcrew": 7251,
      "lied": 7252,
      "ĠSwed": 7253,
      "Ġimplications": 7254,
      "Ġmild": 7255,
      "Ġfairly": 7256,
      "Ġtelevision": 7257,
      "irds": 7258,
      "Ġhealthcare": 7259,
      "Ġargue": 7260,
      "Ġordinary": 7261,
      "Ġedition": 7262,
      "otal": 7263,
      "ĠDou": 7264,
      "Ġmeasurements": 7265,
      "Ġdollars": 7266,
      "fl": 7267,
      "ĠWho": 7268,
      "Ġdrawing": 7269,
      "onal": 7270,
      "including": 7271,
      "Ġmice": 7272,
      "sen": 7273,
      "Ġreliable": 7274,
      "Ġcharacteristic": 7275,
      "Ġtempor": 7276,
      "bles": 7277,
      "Ġfasc": 7278,
      "ĠAdd": 7279,
      "Ġ34": 7280,
      "aka": 7281,
      "ĠTim": 7282,
      "Ġpharm": 7283,
      "Ġtransp": 7284,
      "Am": 7285,
      "ailable": 7286,
      "86": 7287,
      "emb": 7288,
      "Ġintense": 7289,
      "Ġrefused": 7290,
      "Ġshut": 7291,
      "Ġempt": 7292,
      "2011": 7293,
      "Not": 7294,
      "Ġvel": 7295,
      "atial": 7296,
      "Ġstead": 7297,
      "Ġcalculated": 7298,
      "aints": 7299,
      "'m": 7300,
      "Ġconstantly": 7301,
      "Ġboys": 7302,
      "Ġahead": 7303,
      "ĠVis": 7304,
      "Ġtrip": 7305,
      "Ġsons": 7306,
      "Ġhighlight": 7307,
      "Ġexamined": 7308,
      "oul": 7309,
      "ĠVen": 7310,
      "ĠExpl": 7311,
      "ĠIraq": 7312,
      "Ġparad": 7313,
      "ĠCre": 7314,
      "Ġdelivered": 7315,
      "Ġsmart": 7316,
      "ependent": 7317,
      "sm": 7318,
      "ostic": 7319,
      "ĠSection": 7320,
      "uan": 7321,
      "ĠNever": 7322,
      "Ġearn": 7323,
      "Ġconsumer": 7324,
      "John": 7325,
      "Ġexplicit": 7326,
      "ersonal": 7327,
      "Ġangle": 7328,
      "inite": 7329,
      "ette": 7330,
      "ĠBefore": 7331,
      "Ġhun": 7332,
      "Ġroyal": 7333,
      "Ġcenters": 7334,
      "Ġarmed": 7335,
      "Cont": 7336,
      "ospel": 7337,
      "Ġtissues": 7338,
      "har": 7339,
      "Ġcoffee": 7340,
      "Ġgap": 7341,
      "ima": 7342,
      "Ps": 7343,
      "ĠZeal": 7344,
      "Ġmechanical": 7345,
      "isk": 7346,
      "night": 7347,
      "Ġimplemented": 7348,
      "Ġsettings": 7349,
      "Ġprovision": 7350,
      "Ġesc": 7351,
      "Ġbranches": 7352,
      "Ġindustries": 7353,
      "Ġconfig": 7354,
      "ĠJul": 7355,
      "ĠAgricult": 7356,
      "Ġrice": 7357,
      "Ġpresentation": 7358,
      "ieval": 7359,
      "Ġpeak": 7360,
      ".'": 7361,
      "itarian": 7362,
      "Ġusual": 7363,
      "Ġparameters": 7364,
      "Ġgro": 7365,
      "kind": 7366,
      "enger": 7367,
      "Ġremoval": 7368,
      "requ": 7369,
      ".),": 7370,
      "earing": 7371,
      "Ġartificial": 7372,
      "Ġchlor": 7373,
      "ĠWik": 7374,
      "Ġaccommod": 7375,
      "Ġlaunched": 7376,
      "ĠPen": 7377,
      "Ġmetabol": 7378,
      "Ġsettled": 7379,
      "Pub": 7380,
      "Ð°": 7381,
      "ois": 7382,
      "Ġdriven": 7383,
      "Ġnearby": 7384,
      "Ġflo": 7385,
      "quir": 7386,
      "agan": 7387,
      "ĠOcean": 7388,
      "Ġtea": 7389,
      "ĠDistrict": 7390,
      "Ġtrouble": 7391,
      "Ġlaunch": 7392,
      "rape": 7393,
      "Ġdominant": 7394,
      "ĠOtt": 7395,
      "ĠJeff": 7396,
      "Ġmodified": 7397,
      "ĠAlexander": 7398,
      "Ġnewly": 7399,
      "Ġtube": 7400,
      "ĠOper": 7401,
      "ĠSS": 7402,
      "ĠBig": 7403,
      "ĠEU": 7404,
      "Ġstations": 7405,
      "Ġnotion": 7406,
      "Ġrab": 7407,
      "ĠKorea": 7408,
      "ĠDesign": 7409,
      "Ġstring": 7410,
      "Ġdoctors": 7411,
      "ĠCommunity": 7412,
      "Ġannounced": 7413,
      "Ġtherap": 7414,
      "Ġfed": 7415,
      "Ġouter": 7416,
      "Ġcarb": 7417,
      "isd": 7418,
      "AA": 7419,
      "Ġsmooth": 7420,
      "ographical": 7421,
      "Ġseparated": 7422,
      "Ġwalking": 7423,
      "Ġrelax": 7424,
      "Ġreasonable": 7425,
      "Ġperceived": 7426,
      "ĠSpecial": 7427,
      "Ġblocks": 7428,
      "Ġsimult": 7429,
      "Ġwine": 7430,
      "Ġarguments": 7431,
      "ups": 7432,
      "Ġeffectiveness": 7433,
      "ĠDom": 7434,
      "ĠLincoln": 7435,
      "Ġrose": 7436,
      "Ġglucose": 7437,
      "ĠServices": 7438,
      "Ġattitude": 7439,
      "ĠSciences": 7440,
      "Ġplot": 7441,
      "Ġlifest": 7442,
      "Ġ1988": 7443,
      "ĠPortug": 7444,
      "DS": 7445,
      "ioxide": 7446,
      "Ġgrain": 7447,
      "Ġped": 7448,
      "Ġburning": 7449,
      "Ġartists": 7450,
      "ĠBattle": 7451,
      "Ġstudying": 7452,
      "haust": 7453,
      "Ġmountains": 7454,
      "Ġstood": 7455,
      "Ġ(\"": 7456,
      "ricted": 7457,
      "Ð¾": 7458,
      "ĠCell": 7459,
      "ĠChapter": 7460,
      "Ġ150": 7461,
      "Ġcommunicate": 7462,
      "Ġplayers": 7463,
      "Ġinsects": 7464,
      "unicip": 7465,
      "Ġvisited": 7466,
      "Can": 7467,
      "ĠDisc": 7468,
      "Ġemphasis": 7469,
      "Ġapparently": 7470,
      "Ġgenome": 7471,
      "Ġtall": 7472,
      "Ġheavily": 7473,
      "osion": 7474,
      "Ġconcentrations": 7475,
      "Ġcompare": 7476,
      "Ġcorresponding": 7477,
      "Ġturning": 7478,
      "Ġprofessor": 7479,
      "ptions": 7480,
      "Ġcas": 7481,
      "acher": 7482,
      "Ġcattle": 7483,
      "ĠDev": 7484,
      "Ġdesigns": 7485,
      "esity": 7486,
      "ogether": 7487,
      "Ġshock": 7488,
      "Ġbringing": 7489,
      "Ġplain": 7490,
      "Ġtooth": 7491,
      "eers": 7492,
      "Ġmyst": 7493,
      "Ġrecommendations": 7494,
      "Ġinsulin": 7495,
      "rav": 7496,
      "ĠGard": 7497,
      "ĠZealand": 7498,
      "adel": 7499,
      "Ġconj": 7500,
      "Ġcareful": 7501,
      "Ġchick": 7502,
      "Ġaddressed": 7503,
      "Ġorgans": 7504,
      "ĠUr": 7505,
      "Ġconserv": 7506,
      "mod": 7507,
      "Ġsports": 7508,
      "Ġpresents": 7509,
      "omatic": 7510,
      "Ġindigenous": 7511,
      "Ġlots": 7512,
      "idential": 7513,
      "etary": 7514,
      "Ġliterary": 7515,
      "ĠAgain": 7516,
      "Ġmyself": 7517,
      "Ġhypothesis": 7518,
      "after": 7519,
      "Ġcontribution": 7520,
      "gs": 7521,
      "Ġasking": 7522,
      "Ġwisdom": 7523,
      "Ġresid": 7524,
      "Ġerrors": 7525,
      "Ġgal": 7526,
      "ĠModern": 7527,
      "Ġsocieties": 7528,
      "First": 7529,
      "2000": 7530,
      "mond": 7531,
      "Ġnarrative": 7532,
      "Ġadvantages": 7533,
      "vania": 7534,
      "Ġaward": 7535,
      "Ġaccuracy": 7536,
      "ĠAT": 7537,
      "Ġvictory": 7538,
      "ĠSon": 7539,
      "onym": 7540,
      "Ġstability": 7541,
      "Ġmuseum": 7542,
      "Ġspending": 7543,
      "Ġsubstances": 7544,
      "Ġrealize": 7545,
      "Ġwrites": 7546,
      "ĠWord": 7547,
      "Ġpartner": 7548,
      "Ġtight": 7549,
      "ĠAP": 7550,
      "Ġgram": 7551,
      "ĠOpen": 7552,
      "Ġdecreased": 7553,
      "Ġneu": 7554,
      "Ġphotograph": 7555,
      "ĠBa": 7556,
      "Ġcouncil": 7557,
      "ĠWal": 7558,
      "Ġreward": 7559,
      "Ġoccupied": 7560,
      "word": 7561,
      "Ġchannel": 7562,
      "ounter": 7563,
      "olt": 7564,
      "iner": 7565,
      "icon": 7566,
      "III": 7567,
      "uten": 7568,
      "aya": 7569,
      "utation": 7570,
      "pass": 7571,
      "ĠDutch": 7572,
      "%,": 7573,
      "ĠCross": 7574,
      "Ġjudgment": 7575,
      "ĠNavy": 7576,
      "atus": 7577,
      "olving": 7578,
      "Ġdefect": 7579,
      "ĠConference": 7580,
      "ĠPlant": 7581,
      "Ġgent": 7582,
      "Ġcoastal": 7583,
      "ĠQueen": 7584,
      "sub": 7585,
      "Ġcomplicated": 7586,
      "ĠCub": 7587,
      "ĠMess": 7588,
      "ĠPhilipp": 7589,
      "Ġconsumers": 7590,
      "Ġviewed": 7591,
      "Ġrivers": 7592,
      "law": 7593,
      "Ġdealing": 7594,
      "etime": 7595,
      "hop": 7596,
      "Ġelsewhere": 7597,
      "ML": 7598,
      "ĠLy": 7599,
      "Ġcort": 7600,
      "Ġlip": 7601,
      "hyd": 7602,
      "ĠNut": 7603,
      "EE": 7604,
      "Ġpup": 7605,
      "Ġscar": 7606,
      "Ġveter": 7607,
      "Ġmissing": 7608,
      "Ġdiameter": 7609,
      "Ġpointed": 7610,
      "Don": 7611,
      "produ": 7612,
      "ĠFig": 7613,
      "Ġsharp": 7614,
      "Ġtons": 7615,
      "Ġsales": 7616,
      "ĠLow": 7617,
      "ipher": 7618,
      "Ġprevalence": 7619,
      "ĠDisease": 7620,
      "urd": 7621,
      "Ġbrings": 7622,
      "Ġpursu": 7623,
      "2004": 7624,
      "ĠCoast": 7625,
      "uther": 7626,
      "Ġcontamin": 7627,
      "ĠNov": 7628,
      "rency": 7629,
      "ictionary": 7630,
      "ritis": 7631,
      "Ġregime": 7632,
      "Ġà¤": 7633,
      "Ġallerg": 7634,
      "ĠJustice": 7635,
      "Ġ65": 7636,
      "ĠAI": 7637,
      "ĠColon": 7638,
      "Ġknowing": 7639,
      "CP": 7640,
      "syl": 7641,
      "Ġintest": 7642,
      "Ġexisted": 7643,
      "ĠRoad": 7644,
      "ĠPMID": 7645,
      "Ġencouraged": 7646,
      "ĠMA": 7647,
      "ĠLar": 7648,
      "irms": 7649,
      "Ġstrike": 7650,
      "87": 7651,
      "Ġmoves": 7652,
      "ĠColor": 7653,
      "Ġusage": 7654,
      "Ġformula": 7655,
      "Ġfaced": 7656,
      "Ġath": 7657,
      "Ġheads": 7658,
      "Ġkilling": 7659,
      "Ġanalog": 7660,
      "Ġtor": 7661,
      "Ġfu": 7662,
      "antly": 7663,
      "iov": 7664,
      "Ġprofit": 7665,
      "thew": 7666,
      "2012": 7667,
      "Ġrecru": 7668,
      "Ġfought": 7669,
      "ĠOrganization": 7670,
      "Ġcolonies": 7671,
      "Ġlinear": 7672,
      "Ġintensity": 7673,
      "eping": 7674,
      "Ġsacred": 7675,
      "Ġeditor": 7676,
      "Ġcamera": 7677,
      "Ne": 7678,
      "Ġowned": 7679,
      "ĠRh": 7680,
      "Ġnervous": 7681,
      "Ġarchae": 7682,
      "craft": 7683,
      "she": 7684,
      "ĠGuide": 7685,
      "Ġauton": 7686,
      "hma": 7687,
      "Ġpoem": 7688,
      "Ġpersonality": 7689,
      "ĠIndust": 7690,
      "Ġhumanity": 7691,
      "ĠSecretary": 7692,
      "ĠRock": 7693,
      "Ġlegs": 7694,
      "Ġimagine": 7695,
      "Ġvirtual": 7696,
      "Ġ400": 7697,
      "ĠJacob": 7698,
      "Ġfix": 7699,
      "Ġven": 7700,
      "Ġfold": 7701,
      "Ġartist": 7702,
      "ĠTurk": 7703,
      "Ġongoing": 7704,
      "Ġwait": 7705,
      "Ġlessons": 7706,
      "ĠBooks": 7707,
      "pdf": 7708,
      "ricts": 7709,
      "Ġlogic": 7710,
      "ĠForest": 7711,
      "ĠElizabeth": 7712,
      "ĠCapt": 7713,
      "Ġtiny": 7714,
      "ga": 7715,
      "ĠFar": 7716,
      "Ġ1930": 7717,
      "aven": 7718,
      "Ġputting": 7719,
      "Ġinfect": 7720,
      "agen": 7721,
      "Ġarts": 7722,
      "bell": 7723,
      "amine": 7724,
      "Ġmaps": 7725,
      "Ġkne": 7726,
      "Ġvoc": 7727,
      "acco": 7728,
      "Ġrecy": 7729,
      "Ġphysics": 7730,
      "Ġquantity": 7731,
      "Ġinstalled": 7732,
      "specific": 7733,
      "Ġcharged": 7734,
      "ptic": 7735,
      "Ġdetected": 7736,
      "Ġprayer": 7737,
      "ĠTV": 7738,
      "Ġenorm": 7739,
      "Ġcounsel": 7740,
      "Ġincident": 7741,
      "Ġserving": 7742,
      "Ġmining": 7743,
      "Ġforget": 7744,
      "Ġsession": 7745,
      "Ġrepair": 7746,
      "thod": 7747,
      "agraph": 7748,
      "Ġchap": 7749,
      "ĠKen": 7750,
      "vin": 7751,
      "iture": 7752,
      "ĠAdv": 7753,
      "ĠBoston": 7754,
      "Ġepis": 7755,
      "igan": 7756,
      "conds": 7757,
      "effect": 7758,
      "ĠSuper": 7759,
      "Ġcontributed": 7760,
      "ĠSand": 7761,
      "Ġevening": 7762,
      "Ġhistoric": 7763,
      "ansas": 7764,
      "fe": 7765,
      "una": 7766,
      "Ġrepresentative": 7767,
      "Pe": 7768,
      "Ġmineral": 7769,
      "rix": 7770,
      "Ġdioxide": 7771,
      "Ġcup": 7772,
      "Ġattempted": 7773,
      "Ġunw": 7774,
      "Ġtaxes": 7775,
      "Ġlymph": 7776,
      "Ġoutbre": 7777,
      "aska": 7778,
      "Ġprivile": 7779,
      "ĠFamily": 7780,
      "ĠDC": 7781,
      "Ġrocks": 7782,
      "Ġlake": 7783,
      "Or": 7784,
      "Ġcorner": 7785,
      "ĠMake": 7786,
      "Ġconstra": 7787,
      "emies": 7788,
      "ocyt": 7789,
      "Ġtargets": 7790,
      "Ġreign": 7791,
      "owed": 7792,
      "Ġfacility": 7793,
      "Ġlatest": 7794,
      "amination": 7795,
      "Ġmicrob": 7796,
      "ĠCancer": 7797,
      "ĠNote": 7798,
      "Ġdynamic": 7799,
      "Ġentit": 7800,
      "Ġneutral": 7801,
      "Ġmessages": 7802,
      "Ġharmful": 7803,
      "Ġgirl": 7804,
      "ĠLo": 7805,
      "Ġamaz": 7806,
      "Ġexped": 7807,
      "Ġvertical": 7808,
      "Ġcaught": 7809,
      "imm": 7810,
      "Ġmigration": 7811,
      "ĠAst": 7812,
      "Ġspectrum": 7813,
      "ĠGr": 7814,
      "Ġcolony": 7815,
      "ĠSenate": 7816,
      "ĠPot": 7817,
      "Ġtill": 7818,
      "ĠSund": 7819,
      "Ġmorph": 7820,
      "heric": 7821,
      "Ġmanuscript": 7822,
      "Ġ95": 7823,
      "Ġduration": 7824,
      "pled": 7825,
      "uber": 7826,
      "achment": 7827,
      "ught": 7828,
      "83": 7829,
      "Ġdisturb": 7830,
      "awa": 7831,
      "Ġcircle": 7832,
      "itals": 7833,
      "Ġroads": 7834,
      "ĠAdditionally": 7835,
      "plete": 7836,
      "ĠAbraham": 7837,
      "Ġacres": 7838,
      "Ġtheme": 7839,
      "ema": 7840,
      "rolled": 7841,
      "Ġevolved": 7842,
      "Ġcrown": 7843,
      "ĠNASA": 7844,
      "ĠEs": 7845,
      "Ġaccessible": 7846,
      "Ġevaluate": 7847,
      "Ġcholesterol": 7848,
      "Ġconsent": 7849,
      "ĠSpring": 7850,
      "Ġdistinction": 7851,
      "Ġbath": 7852,
      "ĠConfed": 7853,
      "Ġflour": 7854,
      "kh": 7855,
      "eting": 7856,
      "ĠPolicy": 7857,
      "'.": 7858,
      "Ġpoison": 7859,
      "ÙĦ": 7860,
      "Ġphilosop": 7861,
      "Ġdraft": 7862,
      "agram": 7863,
      "rh": 7864,
      "ĠMult": 7865,
      "MP": 7866,
      "Ġdoctrine": 7867,
      "Ġguidance": 7868,
      "Ġmerch": 7869,
      "Ġneighborhood": 7870,
      "Ġfever": 7871,
      "Ġinterventions": 7872,
      "Ġvulnerable": 7873,
      "pre": 7874,
      "Ġmoisture": 7875,
      "sylvania": 7876,
      "ĠFund": 7877,
      "Ġrely": 7878,
      "Ġadverse": 7879,
      "AB": 7880,
      "Ġassembly": 7881,
      "Ġpanel": 7882,
      "Ġaqu": 7883,
      "Ġmembrane": 7884,
      "Ġsmoking": 7885,
      "OD": 7886,
      "Ġliberal": 7887,
      "Ġasc": 7888,
      "Ġchurches": 7889,
      "Ġgrounds": 7890,
      ".||": 7891,
      "Te": 7892,
      "chen": 7893,
      "Ġscope": 7894,
      "Per": 7895,
      "aming": 7896,
      "umps": 7897,
      "Ġstopped": 7898,
      "ĠCH": 7899,
      "Ġmine": 7900,
      "ĠAllah": 7901,
      "Ġteams": 7902,
      "ĠCro": 7903,
      "Ġhall": 7904,
      "Ġexpanded": 7905,
      "Ġcolleagues": 7906,
      "asy": 7907,
      "Ġconsequence": 7908,
      "asts": 7909,
      "Ðµ": 7910,
      "Ġlegit": 7911,
      "Ġmusical": 7912,
      "Ġabnormal": 7913,
      "Ġbreeding": 7914,
      "Ġobjectives": 7915,
      "Ġfinished": 7916,
      "Ġprovince": 7917,
      "Because": 7918,
      "Ġviruses": 7919,
      "Ġ1987": 7920,
      "Ġmir": 7921,
      "ĠEconomic": 7922,
      "Ġcalling": 7923,
      "Ġvariations": 7924,
      "Ġscreening": 7925,
      "Ġethical": 7926,
      "Ġdescript": 7927,
      "Ġ42": 7928,
      "Even": 7929,
      "athered": 7930,
      "Ġassets": 7931,
      "Ġbiggest": 7932,
      "ĠGar": 7933,
      "Ġspaces": 7934,
      "Ġinvasion": 7935,
      "Ġbacterial": 7936,
      "Ġsister": 7937,
      "arks": 7938,
      "ĠMur": 7939,
      "omed": 7940,
      "Ġmilit": 7941,
      "Ġunto": 7942,
      "ĠDig": 7943,
      "Ġvolcan": 7944,
      "weight": 7945,
      "Ġdates": 7946,
      "vard": 7947,
      "urning": 7948,
      "Ġfalls": 7949,
      "Ġspoke": 7950,
      "ediatric": 7951,
      "ĠConst": 7952,
      "Ġobserve": 7953,
      "Ġwars": 7954,
      "ĠSaint": 7955,
      "Ġmeters": 7956,
      "ĠLu": 7957,
      "ĠLi": 7958,
      "ĠÂ£": 7959,
      "Ġpersonnel": 7960,
      "ĠHa": 7961,
      "ĠAL": 7962,
      "Ġoverw": 7963,
      "Ġintention": 7964,
      "Ġembry": 7965,
      "Ġadolesc": 7966,
      "Î±": 7967,
      "Ġinterface": 7968,
      "anes": 7969,
      "Ġboat": 7970,
      "Ġstatistics": 7971,
      "SS": 7972,
      "Ġexcessive": 7973,
      "ĠKenn": 7974,
      "Ġserves": 7975,
      "Ġexhaust": 7976,
      "ĠPur": 7977,
      "ĠJo": 7978,
      "asma": 7979,
      "Ġsurfaces": 7980,
      "2013": 7981,
      "Ġalive": 7982,
      "Ġroughly": 7983,
      "Ġrac": 7984,
      "Ġ1986": 7985,
      "Ġthanks": 7986,
      "ĠProfessor": 7987,
      "Ġmaybe": 7988,
      "abul": 7989,
      "Ġconference": 7990,
      "ĠAdam": 7991,
      "rapeut": 7992,
      "84": 7993,
      "ĠAR": 7994,
      "Ġextend": 7995,
      "ĠSign": 7996,
      "Ġdamaged": 7997,
      "Ġholy": 7998,
      "Ġstronger": 7999,
      "bury": 8000,
      "ĠAdministration": 8001,
      "Ġscores": 8002,
      "Ġfinds": 8003,
      "Ġcash": 8004,
      "ounce": 8005,
      "Ġanalyses": 8006,
      "Ġmixture": 8007,
      "Ġattribut": 8008,
      "En": 8009,
      "ĠpH": 8010,
      "Ġfro": 8011,
      "Ġloved": 8012,
      "itic": 8013,
      "Ġspoken": 8014,
      "Ġdiffer": 8015,
      "icate": 8016,
      "2003": 8017,
      "Ġlosses": 8018,
      "Ġfarming": 8019,
      "Im": 8020,
      "Ġcollective": 8021,
      "Ġclassical": 8022,
      "Ġempire": 8023,
      "oga": 8024,
      "ĠLanguage": 8025,
      "ĠIsa": 8026,
      "type": 8027,
      "Ġoccas": 8028,
      "ĠTri": 8029,
      "ĠCat": 8030,
      "Ġburied": 8031,
      "Ġwithdraw": 8032,
      "iblical": 8033,
      "ĠFred": 8034,
      "ĠChief": 8035,
      "Ġunusual": 8036,
      "ontal": 8037,
      "Ġversus": 8038,
      "Ġabstract": 8039,
      "Ġsequences": 8040,
      "Ġjurisd": 8041,
      "ĠEncyclop": 8042,
      "Ġkit": 8043,
      "Ġinjuries": 8044,
      "Comm": 8045,
      "Ġversions": 8046,
      "chers": 8047,
      "Ġtact": 8048,
      "gers": 8049,
      "Ġmood": 8050,
      "conn": 8051,
      "aning": 8052,
      "CL": 8053,
      "Ġpoetry": 8054,
      "outs": 8055,
      "Ġfishing": 8056,
      "Ġprobability": 8057,
      "thur": 8058,
      "ĠClimate": 8059,
      "irth": 8060,
      "Ġfacing": 8061,
      "ipedia": 8062,
      "Ġaccompanied": 8063,
      "section": 8064,
      "Ġhybrid": 8065,
      "Ġaffairs": 8066,
      "Ġexclud": 8067,
      "hire": 8068,
      "Ġrespiratory": 8069,
      "ĠEgyptian": 8070,
      "Ġconversation": 8071,
      "spe": 8072,
      "ĠGermans": 8073,
      "Ġemerged": 8074,
      "Ġcovers": 8075,
      "ĠVan": 8076,
      "Ġclothing": 8077,
      "iest": 8078,
      "quit": 8079,
      "Ġovercome": 8080,
      "Ġtrends": 8081,
      "Ġpreferred": 8082,
      "Ġphrase": 8083,
      "Ġcats": 8084,
      "ĠSometimes": 8085,
      "May": 8086,
      "Ġ1920": 8087,
      "Ġwelfare": 8088,
      "ackson": 8089,
      "Ġforming": 8090,
      "Ġavailability": 8091,
      "Ġstones": 8092,
      "Ġgeomet": 8093,
      "Ġminute": 8094,
      "ĠMars": 8095,
      "Ġnitrogen": 8096,
      "inent": 8097,
      "Ġboost": 8098,
      "Ġdrain": 8099,
      "ĠHit": 8100,
      "cin": 8101,
      "Ġoxid": 8102,
      "ĠFrancisco": 8103,
      "Ġsmoke": 8104,
      "ammad": 8105,
      "ĠResp": 8106,
      "Ġinvolvement": 8107,
      "Ġdeeper": 8108,
      "ĠHand": 8109,
      "Ġhole": 8110,
      "Ġquarter": 8111,
      "rowing": 8112,
      "Ġdescend": 8113,
      "81": 8114,
      "anger": 8115,
      "wan": 8116,
      "ĠScotland": 8117,
      "Ġquiet": 8118,
      "Ġpush": 8119,
      "ĠTom": 8120,
      "Ġflows": 8121,
      "itory": 8122,
      "Ã¨": 8123,
      "aternal": 8124,
      "VID": 8125,
      "Ġextension": 8126,
      "Ġcotton": 8127,
      "Ġgly": 8128,
      "Ġvarieties": 8129,
      "Ġhabits": 8130,
      "exp": 8131,
      "Ġsensitivity": 8132,
      "ĠGeorgia": 8133,
      "ĠDoes": 8134,
      "Ġfet": 8135,
      "Ġsovere": 8136,
      "ograp": 8137,
      "lected": 8138,
      "Ġdigest": 8139,
      "Ġcopper": 8140,
      "Ġduties": 8141,
      "Col": 8142,
      "actions": 8143,
      "OW": 8144,
      "Ġ1940": 8145,
      "Note": 8146,
      "Ġhier": 8147,
      "Ġthirty": 8148,
      "Ġshoot": 8149,
      "ĠCP": 8150,
      "ailing": 8151,
      "Ġherself": 8152,
      "Ġplayer": 8153,
      "OP": 8154,
      "ĠDaniel": 8155,
      "iger": 8156,
      "Ġestate": 8157,
      "Ġmeal": 8158,
      "ĠBuddh": 8159,
      "Ġaged": 8160,
      "Ġreveal": 8161,
      "Ġfellow": 8162,
      "Ġreaching": 8163,
      "Ġkidney": 8164,
      "ĠIns": 8165,
      "conscious": 8166,
      "Ġirrig": 8167,
      "Ġpounds": 8168,
      "prof": 8169,
      "Ġacting": 8170,
      "Ġreduces": 8171,
      "Ġmathematics": 8172,
      "Ġelder": 8173,
      "App": 8174,
      "Ġillegal": 8175,
      "ĠHindu": 8176,
      "ĠGulf": 8177,
      "ĠAnalysis": 8178,
      "ĠChange": 8179,
      "ĠMic": 8180,
      "essions": 8181,
      "Ġimmigrants": 8182,
      "Ġcommitment": 8183,
      "Ġindirect": 8184,
      "Ġprox": 8185,
      "ĠPennsylvania": 8186,
      "ĠCA": 8187,
      "ĠScript": 8188,
      "Ġbreathing": 8189,
      "rose": 8190,
      "ĠRNA": 8191,
      "Ġstrain": 8192,
      "ĠEconom": 8193,
      "Ġacknowled": 8194,
      "ĠUt": 8195,
      "sembly": 8196,
      "Ġcoverage": 8197,
      "holders": 8198,
      "Ġdeeply": 8199,
      "ĠConvention": 8200,
      "Ġequation": 8201,
      "otherapy": 8202,
      "Ġov": 8203,
      "Ġinspired": 8204,
      "Ġbiology": 8205,
      "\")": 8206,
      "thm": 8207,
      "run": 8208,
      "Ġfest": 8209,
      "ĠLiter": 8210,
      "Ġdegrad": 8211,
      "Co": 8212,
      "Ġchallenging": 8213,
      "ĠLight": 8214,
      "ĠStar": 8215,
      "Ġviolent": 8216,
      "Ġlifestyle": 8217,
      "Ġhealing": 8218,
      "zyme": 8219,
      "alog": 8220,
      "Ġsymp": 8221,
      "Ġelections": 8222,
      "Ġdict": 8223,
      "Ġprinted": 8224,
      "Ġlimitations": 8225,
      "EG": 8226,
      "ĠLater": 8227,
      "Ġalph": 8228,
      "Ġcomprom": 8229,
      "Dr": 8230,
      "ethe": 8231,
      "Ġstake": 8232,
      "Ġconverted": 8233,
      "Ġpromise": 8234,
      "ĠRelig": 8235,
      "fts": 8236,
      "ĠTop": 8237,
      "ĠMach": 8238,
      "Ġmoderate": 8239,
      "Ġsatisfact": 8240,
      "ĠTemple": 8241,
      "psy": 8242,
      "Ġuncle": 8243,
      "Ġproven": 8244,
      "Ġadvent": 8245,
      "Ġminister": 8246,
      "Ġwildlife": 8247,
      "Ġdeficiency": 8248,
      "ĠQur": 8249,
      "uum": 8250,
      "Ġcontrad": 8251,
      "iy": 8252,
      "Ġsummary": 8253,
      "mentation": 8254,
      "ĠCurrent": 8255,
      "Ġjump": 8256,
      "Rec": 8257,
      "Ġtropical": 8258,
      "Ġregardless": 8259,
      "rove": 8260,
      "uting": 8261,
      "Ġauthent": 8262,
      "uset": 8263,
      "amil": 8264,
      "IF": 8265,
      "Ġdipl": 8266,
      "who": 8267,
      "zym": 8268,
      "ghan": 8269,
      "Ġbegun": 8270,
      "ĠBh": 8271,
      "ĠAgency": 8272,
      "Ġclassified": 8273,
      "Ġpermission": 8274,
      "ĠSeveral": 8275,
      "Ġboundaries": 8276,
      "Ġ55": 8277,
      "iva": 8278,
      "Ġ39": 8279,
      "Ġmarg": 8280,
      "Ġdemocratic": 8281,
      "Ġrequirement": 8282,
      "Ġsulf": 8283,
      "Ġbeat": 8284,
      "Ġintra": 8285,
      "idal": 8286,
      "worth": 8287,
      "irable": 8288,
      "Ġweakness": 8289,
      "Ġchest": 8290,
      "Ġtort": 8291,
      "rive": 8292,
      "Ġembra": 8293,
      "Ġremind": 8294,
      "ĠRam": 8295,
      "onents": 8296,
      "Ġadvis": 8297,
      "ĠRail": 8298,
      "Ġprovisions": 8299,
      "oli": 8300,
      "Ġsystematic": 8301,
      "Ġminerals": 8302,
      "ĠWay": 8303,
      "Ġvib": 8304,
      "Ġscheme": 8305,
      "Ġinhabitants": 8306,
      "Over": 8307,
      "rity": 8308,
      "this": 8309,
      "Ġbreath": 8310,
      "ĠHence": 8311,
      "Ġpit": 8312,
      "Ġtong": 8313,
      "UL": 8314,
      "Ġtranslated": 8315,
      "Ġcommunications": 8316,
      "iations": 8317,
      "Ġdil": 8318,
      "operative": 8319,
      "Ġsheet": 8320,
      "Ġearthqu": 8321,
      "hus": 8322,
      "usetts": 8323,
      "Ġreferences": 8324,
      "Ġbutter": 8325,
      "ocity": 8326,
      "Ġtemporary": 8327,
      "ĠHosp": 8328,
      "achusetts": 8329,
      "Ġevolutionary": 8330,
      "ĠAuthor": 8331,
      "ĠFil": 8332,
      "Ġreporting": 8333,
      "Ġmarks": 8334,
      "Ġgast": 8335,
      "Ġft": 8336,
      "aren": 8337,
      "adder": 8338,
      "uity": 8339,
      "Ġstores": 8340,
      "Ġstreets": 8341,
      "Ġminds": 8342,
      "Ġmold": 8343,
      "rot": 8344,
      "Ġcomplexity": 8345,
      "Ġwheat": 8346,
      "ais": 8347,
      "ucky": 8348,
      "Once": 8349,
      "uits": 8350,
      "Ġbiod": 8351,
      "Ġdress": 8352,
      "Ġrealized": 8353,
      "ĠCam": 8354,
      "Ġdetermining": 8355,
      "ĠGh": 8356,
      "Ġnest": 8357,
      "Ġinvention": 8358,
      "Ġbreed": 8359,
      "Ġeliminate": 8360,
      "Ġrect": 8361,
      "ĠGreece": 8362,
      "Ġscan": 8363,
      "isition": 8364,
      "Ġdecor": 8365,
      "ref": 8366,
      "sem": 8367,
      "ĠModel": 8368,
      "opl": 8369,
      "ĠUk": 8370,
      "Ġspr": 8371,
      "ĠVietnam": 8372,
      "Ġchromos": 8373,
      "Ġoccurring": 8374,
      "Ġreflected": 8375,
      "ĠSurvey": 8376,
      "Ġsubstit": 8377,
      "Ġclub": 8378,
      "gal": 8379,
      "ĠColumbia": 8380,
      "NS": 8381,
      "Ġhur": 8382,
      "cut": 8383,
      "coming": 8384,
      "Ġattitudes": 8385,
      "Ġpenet": 8386,
      "Ġpoet": 8387,
      "ologically": 8388,
      "Ġeveryday": 8389,
      "Ġhunting": 8390,
      "aret": 8391,
      "Ġlists": 8392,
      "Ġjoy": 8393,
      "Ġcord": 8394,
      "Ġhidden": 8395,
      "adelph": 8396,
      "Ġpersu": 8397,
      "Ġprisoners": 8398,
      "Ġ44": 8399,
      "Ġpreventing": 8400,
      ".]": 8401,
      "Ġqualities": 8402,
      "lav": 8403,
      "Ġoverwhel": 8404,
      "unct": 8405,
      "ĠEll": 8406,
      "Ġstroke": 8407,
      "enza": 8408,
      "Ġ1985": 8409,
      "itamin": 8410,
      "Ġworry": 8411,
      "ori": 8412,
      "Ġidentical": 8413,
      "Ġsacrifice": 8414,
      "Ġgut": 8415,
      "Ġruled": 8416,
      "Ġremarkable": 8417,
      "Ã±": 8418,
      "advant": 8419,
      "Ġcontrary": 8420,
      "ĠMarx": 8421,
      "Stud": 8422,
      "ĠColl": 8423,
      "acent": 8424,
      "ĠPhilosoph": 8425,
      "vals": 8426,
      "Ġstrengthen": 8427,
      "thodox": 8428,
      "arth": 8429,
      "Ġsteam": 8430,
      "eric": 8431,
      "Ġseat": 8432,
      "Ġexercises": 8433,
      "Ġsuscept": 8434,
      "Ġworst": 8435,
      "ĠMinistry": 8436,
      "Ġsplit": 8437,
      "Ġnewspaper": 8438,
      "ooking": 8439,
      "Ġgerm": 8440,
      "Comp": 8441,
      "gon": 8442,
      "Ġphoto": 8443,
      "ĠAh": 8444,
      "ĠGet": 8445,
      "ĠProtest": 8446,
      "apor": 8447,
      "Ġpool": 8448,
      "Ġmurder": 8449,
      "ĠMajor": 8450,
      "Ġpunishment": 8451,
      "power": 8452,
      "gments": 8453,
      "Ġminority": 8454,
      "Ġimaging": 8455,
      "ĠMcC": 8456,
      "Ġtips": 8457,
      "ĠBern": 8458,
      "Ref": 8459,
      "Ġmeetings": 8460,
      "Ġtables": 8461,
      "Ġaimed": 8462,
      "ologic": 8463,
      "Ġpregnant": 8464,
      "ĠLittle": 8465,
      "dule": 8466,
      "anned": 8467,
      "She": 8468,
      "Ġimprovements": 8469,
      "Ġsitting": 8470,
      "MA": 8471,
      "Ġrent": 8472,
      "Ġpriest": 8473,
      "Ġattacked": 8474,
      "ĠGovernor": 8475,
      "Ġconce": 8476,
      "Ġtransferred": 8477,
      "Ġarray": 8478,
      "Ġreadily": 8479,
      "Ð¸": 8480,
      "cho": 8481,
      "ĠMrs": 8482,
      "cling": 8483,
      "ĠOrig": 8484,
      "Ġperpet": 8485,
      "ĠWithout": 8486,
      "Ġbare": 8487,
      "ĠYear": 8488,
      "ĠOs": 8489,
      "Ġbrothers": 8490,
      "Ġwaiting": 8491,
      "amples": 8492,
      "rec": 8493,
      "Ġvirtually": 8494,
      "Ġspecified": 8495,
      "ĠNetwork": 8496,
      "ĠFed": 8497,
      "Ġintegration": 8498,
      "Ġstuff": 8499,
      "reated": 8500,
      "ĠMax": 8501,
      "Ġexecutive": 8502,
      "Ġinequ": 8503,
      "Ġcontributions": 8504,
      "ictions": 8505,
      "alities": 8506,
      "Ġadministrative": 8507,
      "Ġcooperation": 8508,
      "Ġpilot": 8509,
      "ĠGall": 8510,
      "Ġmeasuring": 8511,
      "Ġresc": 8512,
      "Ġchose": 8513,
      "ĠBal": 8514,
      "Ġpolar": 8515,
      "Ġprogramming": 8516,
      "Ġlogical": 8517,
      "idity": 8518,
      "Ġenormous": 8519,
      "ibet": 8520,
      "child": 8521,
      "ĠPL": 8522,
      "ĠWilson": 8523,
      "erated": 8524,
      "Ġultimate": 8525,
      "2002": 8526,
      "rue": 8527,
      "Ġcustomer": 8528,
      "Ġcompound": 8529,
      "da": 8530,
      "Ġseconds": 8531,
      "Ġviral": 8532,
      "adelphia": 8533,
      "Ġmouse": 8534,
      "ker": 8535,
      "you": 8536,
      "Ġfalling": 8537,
      "Ġbuff": 8538,
      "2001": 8539,
      "Ġtwelve": 8540,
      "Ġlowest": 8541,
      "Ġsees": 8542,
      "ĠLim": 8543,
      "Ġstrategic": 8544,
      "ĠList": 8545,
      "ĠFire": 8546,
      "Ġhat": 8547,
      "Ġinsight": 8548,
      "Ġ1984": 8549,
      "ĠCrit": 8550,
      "iti": 8551,
      "Ġvillages": 8552,
      "Ġbehavioral": 8553,
      "Ġren": 8554,
      "Ġster": 8555,
      "Ġanticip": 8556,
      "82": 8557,
      "Ġappeal": 8558,
      "inates": 8559,
      "oom": 8560,
      "rooms": 8561,
      "ĠBang": 8562,
      "Ġprophe": 8563,
      "Ġcab": 8564,
      "Ġdietary": 8565,
      "ĠNeg": 8566,
      "ĠWorks": 8567,
      "Ġitem": 8568,
      "Ġthreatened": 8569,
      "otypes": 8570,
      "ugg": 8571,
      "ieth": 8572,
      "Ġcann": 8573,
      "Ġhouseholds": 8574,
      "Ġincidence": 8575,
      "Ġkg": 8576,
      "Ġautomatically": 8577,
      "Ġownership": 8578,
      "eli": 8579,
      "oca": 8580,
      "ĠIslands": 8581,
      "Ġequality": 8582,
      "Ġphysician": 8583,
      "Ġcivilization": 8584,
      "ĠCard": 8585,
      "ĠJackson": 8586,
      "oked": 8587,
      "Ġgrid": 8588,
      "Ġproductivity": 8589,
      "ĠMassachusetts": 8590,
      "Ġtheoretical": 8591,
      "ĠHitler": 8592,
      "Ġrelie": 8593,
      "uzz": 8594,
      "ĠResources": 8595,
      "Ġton": 8596,
      "Ġlingu": 8597,
      "Ġabol": 8598,
      "raine": 8599,
      "Ġmathematical": 8600,
      "Ġseparation": 8601,
      "Ġmarketing": 8602,
      "Ġsenior": 8603,
      "ĠTown": 8604,
      "ĠMD": 8605,
      "Ġnice": 8606,
      "ĠCode": 8607,
      "Ġasp": 8608,
      "Ġanywhere": 8609,
      "Ġfunctioning": 8610,
      "Ġincred": 8611,
      "Ġsaved": 8612,
      "Ġ43": 8613,
      "ĠBack": 8614,
      "Ġattributed": 8615,
      "Ġprofound": 8616,
      "ĠHave": 8617,
      "Ġstrange": 8618,
      "Ġarise": 8619,
      "ĠSci": 8620,
      "Ġspin": 8621,
      "Ġbelieves": 8622,
      "Ġsale": 8623,
      "Ġfur": 8624,
      "Ġrepresenting": 8625,
      "ateral": 8626,
      "teb": 8627,
      "Ġinherent": 8628,
      "Ġecological": 8629,
      "bec": 8630,
      "hedule": 8631,
      "ador": 8632,
      "ĠLew": 8633,
      "Ġshore": 8634,
      "ĠCorps": 8635,
      "ĠCirc": 8636,
      "Ġvon": 8637,
      "Ġinterf": 8638,
      "Ġemotion": 8639,
      "Ä«": 8640,
      "Ġcontinuing": 8641,
      "ĠPerhaps": 8642,
      "Ġcited": 8643,
      "Ġentitled": 8644,
      "Ġhoney": 8645,
      "Ġreverse": 8646,
      "copy": 8647,
      "Ġpredom": 8648,
      "Ġobesity": 8649,
      "Ġlibr": 8650,
      "aired": 8651,
      "ĠOhio": 8652,
      "RC": 8653,
      "claim": 8654,
      "Ġtumor": 8655,
      "Ġcovering": 8656,
      "omal": 8657,
      "Ġpsychology": 8658,
      "Ġdramatic": 8659,
      "ĠBusiness": 8660,
      "orig": 8661,
      "akh": 8662,
      "ĠStan": 8663,
      "Ġparagraph": 8664,
      "Ġoldest": 8665,
      "Ġheating": 8666,
      "ATION": 8667,
      "press": 8668,
      "Part": 8669,
      "ĠMexican": 8670,
      "terior": 8671,
      "text": 8672,
      "Ġmothers": 8673,
      "Ġ120": 8674,
      "adow": 8675,
      "Then": 8676,
      "Ġburden": 8677,
      "Ġ41": 8678,
      "Ġinterior": 8679,
      "Ġtraits": 8680,
      "Ġconvey": 8681,
      "Ġdistricts": 8682,
      "Ġpreserved": 8683,
      "yan": 8684,
      "Ġengagement": 8685,
      "Ġ(âĢľ": 8686,
      "Ġspatial": 8687,
      "duction": 8688,
      "Ġconversion": 8689,
      "Ġinev": 8690,
      "Ġbinding": 8691,
      "teenth": 8692,
      "ĠTheory": 8693,
      "Ġrejected": 8694,
      "ico": 8695,
      "Ġabandoned": 8696,
      "Ġpartly": 8697,
      "Mar": 8698,
      "ĠBehav": 8699,
      "Ġdance": 8700,
      "ĠAff": 8701,
      "world": 8702,
      "Ġbias": 8703,
      "ĠThird": 8704,
      "Ġidentifying": 8705,
      "Ġtreating": 8706,
      "Ġprofile": 8707,
      "Ġconstitutional": 8708,
      "ĠAmaz": 8709,
      "Ġtendency": 8710,
      "View": 8711,
      "Ġdisrupt": 8712,
      "ohyd": 8713,
      "Ġdirections": 8714,
      "Ġcommod": 8715,
      "Ġpreserve": 8716,
      "Ġfisher": 8717,
      "Ġsuit": 8718,
      "Ġaims": 8719,
      "Ġdistinguish": 8720,
      "Ġswim": 8721,
      "Ġholes": 8722,
      "Ġintr": 8723,
      "Ġwing": 8724,
      "Ġfarms": 8725,
      "Ġfacilitate": 8726,
      "cor": 8727,
      "Ġerect": 8728,
      "Ġfra": 8729,
      "Ġthreats": 8730,
      "ĠLin": 8731,
      "Ġdisaster": 8732,
      "Ġhappening": 8733,
      "Ġwindows": 8734,
      "ĠType": 8735,
      "oded": 8736,
      "Ġvaried": 8737,
      "Ġwarning": 8738,
      "play": 8739,
      "wa": 8740,
      "Ġinstances": 8741,
      "Ġcomfortable": 8742,
      "ĠSimilarly": 8743,
      "ĠPope": 8744,
      "Ġingredients": 8745,
      "Ġdisag": 8746,
      "Ġlens": 8747,
      "ylon": 8748,
      "ĠFer": 8749,
      "ropri": 8750,
      "kl": 8751,
      "Ġdiagnosed": 8752,
      "Ġprecisely": 8753,
      "Ġobst": 8754,
      "Ġcorrectly": 8755,
      "Ġprecip": 8756,
      "ineteenth": 8757,
      "Ġfavorite": 8758,
      "Ġclassification": 8759,
      "ĠAssess": 8760,
      "eous": 8761,
      "Ġachievement": 8762,
      "Ġempty": 8763,
      "Ġplenty": 8764,
      "Ġirrit": 8765,
      "Ġengines": 8766,
      "Ġnan": 8767,
      "ĠPD": 8768,
      "RNA": 8769,
      "ĠInvest": 8770,
      "Ġclock": 8771,
      "ĠCentre": 8772,
      "Ġpermitted": 8773,
      "Ġsizes": 8774,
      "ĠID": 8775,
      "Ġvisitors": 8776,
      "ĠBerlin": 8777,
      "bean": 8778,
      "airy": 8779,
      "Ġimperial": 8780,
      "ĠBiology": 8781,
      "Ġunlikely": 8782,
      "ĠLeague": 8783,
      "Ġrevers": 8784,
      "Ġthermal": 8785,
      "Ġrestricted": 8786,
      "jo": 8787,
      "GE": 8788,
      "erally": 8789,
      "ĠUnfortunately": 8790,
      "Ġinfluences": 8791,
      "Ġherb": 8792,
      "Ġrecover": 8793,
      "ĠProtection": 8794,
      "ials": 8795,
      "inance": 8796,
      "angel": 8797,
      "Ġtreaty": 8798,
      "Ġpurchased": 8799,
      "Ġmunicip": 8800,
      "rapeutic": 8801,
      "Ġparliament": 8802,
      "Ġarrival": 8803,
      "mented": 8804,
      "ĠHead": 8805,
      "Ġgrace": 8806,
      "Ġcards": 8807,
      "abs": 8808,
      "Ġacceptable": 8809,
      "health": 8810,
      "ranean": 8811,
      "Ġgathered": 8812,
      "ĠDarwin": 8813,
      "Ġwheel": 8814,
      "Hist": 8815,
      "Ġsubsequently": 8816,
      "ĠZh": 8817,
      "Ġclients": 8818,
      "ĠHum": 8819,
      "ĠAssembly": 8820,
      "TH": 8821,
      "Ġstatistical": 8822,
      "Ġmerc": 8823,
      "Ġtag": 8824,
      "Ġseriously": 8825,
      "Ġ1945": 8826,
      "Ġadapted": 8827,
      "Ġsatellite": 8828,
      "Ġflying": 8829,
      "icts": 8830,
      "rox": 8831,
      "quiry": 8832,
      "yr": 8833,
      "Ġcondem": 8834,
      "ĠHistorical": 8835,
      "ĠLos": 8836,
      "Ġverse": 8837,
      "icing": 8838,
      "roud": 8839,
      "Ġpriority": 8840,
      "Ġborrow": 8841,
      "fulness": 8842,
      "ĠPass": 8843,
      "lines": 8844,
      "reprene": 8845,
      "ĠSav": 8846,
      "Ġcapabilities": 8847,
      "Ġcomplications": 8848,
      "Ġmi": 8849,
      "Ġsport": 8850,
      "2014": 8851,
      "Ġpleasure": 8852,
      "aping": 8853,
      "Ġ1979": 8854,
      "Ġreturns": 8855,
      "Ġprime": 8856,
      "through": 8857,
      "antine": 8858,
      "Ġbroke": 8859,
      "igue": 8860,
      "Ġheter": 8861,
      "Ġliteracy": 8862,
      "Ġtone": 8863,
      "ĠMid": 8864,
      "ĠJr": 8865,
      "Ġreserv": 8866,
      "Ġorbit": 8867,
      "Ġpassion": 8868,
      "Ġadds": 8869,
      "Ġturb": 8870,
      "ysical": 8871,
      "Ġhormone": 8872,
      "EF": 8873,
      "Ġsegment": 8874,
      "Ġguns": 8875,
      "also": 8876,
      "Ġdimensions": 8877,
      "Ġfles": 8878,
      "Ġorigins": 8879,
      "Ġexpectations": 8880,
      "Ġdimin": 8881,
      "AF": 8882,
      "Ġenemies": 8883,
      "Ġwider": 8884,
      "ĠTyp": 8885,
      "Ġtelling": 8886,
      "ĠNorm": 8887,
      "Ġentering": 8888,
      "Ġcow": 8889,
      "Ġwritings": 8890,
      "Ġtransformation": 8891,
      "Ġprol": 8892,
      "vernment": 8893,
      "Ġcurve": 8894,
      "ĠAri": 8895,
      "ĠJones": 8896,
      "gic": 8897,
      "ĠRight": 8898,
      "Ġestablishing": 8899,
      "Ġemerging": 8900,
      "Ġ?": 8901,
      "abulary": 8902,
      "Ġperforming": 8903,
      "Ã§": 8904,
      "Ġrestrictions": 8905,
      "ĠFact": 8906,
      "ĠNic": 8907,
      "Ġthread": 8908,
      "ĠCommons": 8909,
      "ĠHawai": 8910,
      "orters": 8911,
      "Ġhal": 8912,
      "Ġgovernor": 8913,
      "Ġtechnological": 8914,
      "Ġalign": 8915,
      "Os": 8916,
      "Ġprotective": 8917,
      "omon": 8918,
      "Ġrepresentatives": 8919,
      "Ġmagnitude": 8920,
      "ĠCr": 8921,
      "ĠBuddha": 8922,
      "'d": 8923,
      "HD": 8924,
      "vol": 8925,
      "Ġuniversities": 8926,
      "Ġcontents": 8927,
      "Ġsucceeded": 8928,
      "oys": 8929,
      "ĠPoland": 8930,
      "PubMed": 8931,
      "Ġanthrop": 8932,
      "Ġcharges": 8933,
      "riend": 8934,
      "nut": 8935,
      "ivest": 8936,
      "Ġdropped": 8937,
      "ifier": 8938,
      "Ġhardly": 8939,
      "Ġbought": 8940,
      "ĠChem": 8941,
      "iph": 8942,
      "Ġresemb": 8943,
      "1016": 8944,
      "Com": 8945,
      "economic": 8946,
      "Ġscholar": 8947,
      "Ġfocuses": 8948,
      "Ġabilities": 8949,
      "Ġprogramme": 8950,
      "Ġboundary": 8951,
      "ĠGre": 8952,
      "Ġcollaboration": 8953,
      "Ġchannels": 8954,
      "uy": 8955,
      "ĠDie": 8956,
      "ĠTake": 8957,
      "issance": 8958,
      "ĠCE": 8959,
      "ĠCorn": 8960,
      "dess": 8961,
      "ĠAndrew": 8962,
      "ĠWindows": 8963,
      "Ġkilomet": 8964,
      "Sm": 8965,
      "Ġpin": 8966,
      "Ġdispers": 8967,
      "Ġ1983": 8968,
      "Ġphenomena": 8969,
      "neys": 8970,
      "fn": 8971,
      "Ġsymbols": 8972,
      "athan": 8973,
      "acle": 8974,
      "Ġvig": 8975,
      "Ġliterally": 8976,
      "Ġcoc": 8977,
      "Ġwise": 8978,
      "Ġhappiness": 8979,
      "ĠEmperor": 8980,
      "ĠDrug": 8981,
      "Ġfaces": 8982,
      "endar": 8983,
      "Ġabundance": 8984,
      "Ġproviders": 8985,
      "ĠMuh": 8986,
      "Ġdiscussions": 8987,
      "ĠBureau": 8988,
      "ĠMoon": 8989,
      "Ġought": 8990,
      "Ġsummar": 8991,
      "Ġdiscipline": 8992,
      "ĠArist": 8993,
      "Ġhazard": 8994,
      "Ġrecording": 8995,
      "Ġcitizen": 8996,
      "Ġcreatures": 8997,
      "Ġinnovation": 8998,
      "Ġinfants": 8999,
      "ĠSystems": 9000,
      "hea": 9001,
      "Ġsuggesting": 9002,
      "ĠMove": 9003,
      "aws": 9004,
      "arly": 9005,
      "Ġpert": 9006,
      "Ġpromoting": 9007,
      "Ġsuddenly": 9008,
      "ĠTurkey": 9009,
      "function": 9010,
      "Ġmature": 9011,
      "Ġfemin": 9012,
      "ked": 9013,
      "ĠÏ": 9014,
      "ĠCreek": 9015,
      "ĠChristmas": 9016,
      "ĠMatthew": 9017,
      "Ġencl": 9018,
      "Ġvalley": 9019,
      "Sim": 9020,
      "!âĢĿ": 9021,
      "Ġtrigger": 9022,
      "Ġtob": 9023,
      "BM": 9024,
      "Ġaccordance": 9025,
      "Ġcompos": 9026,
      "Ġgif": 9027,
      "Ġunex": 9028,
      "Ġmanager": 9029,
      "berry": 9030,
      "Ġincorporated": 9031,
      "Ġsad": 9032,
      "Ġprocessed": 9033,
      "anted": 9034,
      "rays": 9035,
      "Ġpill": 9036,
      "ĠOffic": 9037,
      "Ġpestic": 9038,
      "Ġenzym": 9039,
      "Ġperf": 9040,
      "ĠPhiladelphia": 9041,
      "Ġapplies": 9042,
      "Ġvaries": 9043,
      "Ġprosper": 9044,
      "Ġfeels": 9045,
      "Ġrend": 9046,
      "ĠTH": 9047,
      "Ġconflicts": 9048,
      "Ġfavour": 9049,
      "Ġdeleg": 9050,
      "imp": 9051,
      "Ġdefeat": 9052,
      "icking": 9053,
      "Ġtargeted": 9054,
      "Ġvegetation": 9055,
      "Ġlaser": 9056,
      "Ġadopt": 9057,
      "Ġopinions": 9058,
      "ĠDirector": 9059,
      "Ġintermedi": 9060,
      "forest": 9061,
      "Where": 9062,
      "Ġfinger": 9063,
      "outheast": 9064,
      "Ġpartial": 9065,
      "Read": 9066,
      "idae": 9067,
      "Ġ2021": 9068,
      "ĠAlbert": 9069,
      "Ġmira": 9070,
      "Ġteen": 9071,
      "Ġheritage": 9072,
      "Every": 9073,
      "ĠDam": 9074,
      "ulpt": 9075,
      "aders": 9076,
      "Ġsongs": 9077,
      "Ġeru": 9078,
      "Ġsched": 9079,
      "Ġcamps": 9080,
      "Ġsurge": 9081,
      "Ġnose": 9082,
      "ĠMaster": 9083,
      "ĠProphet": 9084,
      "Ġfatty": 9085,
      "ĠCentury": 9086,
      "Ġtotally": 9087,
      "Ġ%": 9088,
      "lete": 9089,
      "istically": 9090,
      "emed": 9091,
      "Ġ1982": 9092,
      "ĠWilliams": 9093,
      "inth": 9094,
      "Ġdocumented": 9095,
      "ĠSamuel": 9096,
      "ĠDO": 9097,
      "Ġbigger": 9098,
      "Ġmetals": 9099,
      "cult": 9100,
      "uality": 9101,
      "Ġsheep": 9102,
      "ivestock": 9103,
      "Ġoperated": 9104,
      "Sc": 9105,
      "ĠBM": 9106,
      "aters": 9107,
      "Ġdevelopments": 9108,
      "Ġcooking": 9109,
      "Ġfraction": 9110,
      "TA": 9111,
      "Ġliberty": 9112,
      "Ġassault": 9113,
      "rowth": 9114,
      "Ġabsolutely": 9115,
      "rint": 9116,
      "HS": 9117,
      "reshold": 9118,
      "ĠCorpor": 9119,
      "Ġgreenhouse": 9120,
      "ĠIdent": 9121,
      "Ġmanual": 9122,
      "Ġsimultaneously": 9123,
      "Ġdiver": 9124,
      "Ġsubsid": 9125,
      "Ġtribe": 9126,
      "ĠLast": 9127,
      "Ġease": 9128,
      "Ġflower": 9129,
      "ropol": 9130,
      "Ġdesignated": 9131,
      "Ġhardware": 9132,
      "ĠArchived": 9133,
      "roc": 9134,
      "Ġclothes": 9135,
      "pectives": 9136,
      "Ġsurre": 9137,
      "ĠAC": 9138,
      "apped": 9139,
      "jud": 9140,
      "Christ": 9141,
      "ĠTO": 9142,
      "they": 9143,
      "Ġtension": 9144,
      "ĠPoint": 9145,
      "Ġproposal": 9146,
      "Ġsubt": 9147,
      "Ġnamely": 9148,
      "Ġapproval": 9149,
      "Ġloose": 9150,
      "Ġphysically": 9151,
      "Ġpredicted": 9152,
      "Ġbabies": 9153,
      "Ġdental": 9154,
      "Art": 9155,
      "Ġraising": 9156,
      "Ġlearners": 9157,
      "Ġconsisting": 9158,
      "ĠNevertheless": 9159,
      "Ġdefault": 9160,
      "Ġguess": 9161,
      "ĠTibet": 9162,
      "Ġvelocity": 9163,
      "amps": 9164,
      "natural": 9165,
      "ayer": 9166,
      "ĠNob": 9167,
      "ĠKorean": 9168,
      "ĠSP": 9169,
      "inces": 9170,
      "Ġbees": 9171,
      "Ġtrace": 9172,
      "ĠOrder": 9173,
      "Ġcandidate": 9174,
      "feed": 9175,
      "Ġion": 9176,
      "ogs": 9177,
      "eh": 9178,
      "ĠProcess": 9179,
      "Ġclassic": 9180,
      "fare": 9181,
      "ket": 9182,
      "ami": 9183,
      "aylor": 9184,
      "rible": 9185,
      "enh": 9186,
      "Ġenthus": 9187,
      "uv": 9188,
      "soft": 9189,
      "usively": 9190,
      "Ġcrimes": 9191,
      "ĠGuard": 9192,
      "Ġgiant": 9193,
      "Ġaffecting": 9194,
      "Ġpresum": 9195,
      "Ġthro": 9196,
      "Ġdeploy": 9197,
      "Ġcurrency": 9198,
      "ĠHo": 9199,
      "Ġisolation": 9200,
      "Ġstyles": 9201,
      "ĠStrate": 9202,
      "Ġcriticism": 9203,
      "Ġdistant": 9204,
      "Ġbarrier": 9205,
      "Ġchair": 9206,
      "eller": 9207,
      "Ġgrows": 9208,
      "Ġ47": 9209,
      "okes": 9210,
      "Ġcellular": 9211,
      "Ġconsumed": 9212,
      "Ġurine": 9213,
      "aware": 9214,
      "ĠAfghan": 9215,
      "Ġpond": 9216,
      "Ġtransmitted": 9217,
      "Ġamongst": 9218,
      "Ġcirculation": 9219,
      "Ġdriver": 9220,
      "Ġfifth": 9221,
      "ĠNa": 9222,
      "ko": 9223,
      "ĠCho": 9224,
      "Ġwonderful": 9225,
      "Ġdisabilities": 9226,
      "Ġworker": 9227,
      "Ġ46": 9228,
      "ĠEncyclopedia": 9229,
      "Ġanger": 9230,
[...]
